{"version":"1.0","truncation":null,"padding":{"strategy":{"Fixed":0},"direction":"Right","pad_to_multiple_of":null,"pad_id":0,"pad_type_id":0,"pad_token":"<pad>"},"added_tokens":[{"id":0,"content":"<pad>","single_word":true,"lstrip":true,"rstrip":true,"normalized":true,"special":true},{"id":1,"content":"<unk>","single_word":true,"lstrip":true,"rstrip":true,"normalized":true,"special":true}],"normalizer":null,"pre_tokenizer":{"type":"ByteLevel","add_prefix_space":true,"trim_offsets":true,"use_regex":true},"post_processor":null,"decoder":{"type":"ByteLevel","add_prefix_space":true,"trim_offsets":true,"use_regex":true},"model":{"type":"BPE","dropout":null,"unk_token":"<unk>","continuing_subword_prefix":"","end_of_word_suffix":"","fuse_unk":false,"byte_fallback":false,"ignore_merges":false,"vocab":{"<pad>":0,"<unk>":1,"!":2,"\"":3,"#":4,"$":5,"%":6,"&":7,"'":8,"(":9,")":10,"*":11,"+":12,",":13,"-":14,".":15,"/":16,"0":17,"1":18,"2":19,"3":20,"4":21,"5":22,"6":23,"7":24,"8":25,"9":26,":":27,";":28,"<":29,"=":30,">":31,"?":32,"@":33,"A":34,"B":35,"C":36,"D":37,"E":38,"F":39,"G":40,"H":41,"I":42,"J":43,"K":44,"L":45,"M":46,"N":47,"O":48,"P":49,"Q":50,"R":51,"S":52,"T":53,"U":54,"V":55,"W":56,"X":57,"Y":58,"Z":59,"[":60,"\\":61,"]":62,"^":63,"_":64,"`":65,"a":66,"b":67,"c":68,"d":69,"e":70,"f":71,"g":72,"h":73,"i":74,"j":75,"k":76,"l":77,"m":78,"n":79,"o":80,"p":81,"q":82,"r":83,"s":84,"t":85,"u":86,"v":87,"w":88,"x":89,"y":90,"z":91,"{":92,"|":93,"}":94,"~":95,"¡":96,"¢":97,"£":98,"¤":99,"¥":100,"¦":101,"§":102,"¨":103,"©":104,"ª":105,"«":106,"¬":107,"®":108,"¯":109,"°":110,"±":111,"²":112,"³":113,"´":114,"µ":115,"¶":116,"·":117,"¸":118,"¹":119,"º":120,"»":121,"¼":122,"½":123,"¾":124,"¿":125,"À":126,"Á":127,"Â":128,"Ã":129,"Ä":130,"Å":131,"Æ":132,"Ç":133,"È":134,"É":135,"Ê":136,"Ë":137,"Ì":138,"Í":139,"Î":140,"Ï":141,"Ð":142,"Ñ":143,"Ò":144,"Ó":145,"Ô":146,"Õ":147,"Ö":148,"×":149,"Ø":150,"Ù":151,"Ú":152,"Û":153,"Ü":154,"Ý":155,"Þ":156,"ß":157,"à":158,"á":159,"â":160,"ã":161,"ä":162,"å":163,"æ":164,"ç":165,"è":166,"é":167,"ê":168,"ë":169,"ì":170,"í":171,"î":172,"ï":173,"ð":174,"ñ":175,"ò":176,"ó":177,"ô":178,"õ":179,"ö":180,"÷":181,"ø":182,"ù":183,"ú":184,"û":185,"ü":186,"ý":187,"þ":188,"ÿ":189,"Ā":190,"ā":191,"Ă":192,"ă":193,"Ą":194,"ą":195,"Ć":196,"ć":197,"Ĉ":198,"ĉ":199,"Ċ":200,"ċ":201,"Č":202,"č":203,"Ď":204,"ď":205,"Đ":206,"đ":207,"Ē":208,"ē":209,"Ĕ":210,"ĕ":211,"Ė":212,"ė":213,"Ę":214,"ę":215,"Ě":216,"ě":217,"Ĝ":218,"ĝ":219,"Ğ":220,"ğ":221,"Ġ":222,"ġ":223,"Ģ":224,"ģ":225,"Ĥ":226,"ĥ":227,"Ħ":228,"ħ":229,"Ĩ":230,"ĩ":231,"Ī":232,"ī":233,"Ĭ":234,"ĭ":235,"Į":236,"į":237,"İ":238,"ı":239,"Ĳ":240,"ĳ":241,"Ĵ":242,"ĵ":243,"Ķ":244,"ķ":245,"ĸ":246,"Ĺ":247,"ĺ":248,"Ļ":249,"ļ":250,"Ľ":251,"ľ":252,"Ŀ":253,"ŀ":254,"Ł":255,"ł":256,"Ń":257,"ĠĠ":258,"ĠĠĠĠ":259,"ĠĠĠĠĠĠĠĠ":260,"ĠĠĠ":261,"in":262,"er":263,"on":264,"re":265,"at":266,"st":267,"en":268,"Ġt":269,"or":270,"ĉĉ":271,"le":272,"ĊĠĠĠĠ":273,"se":274,"Ġ=":275,"an":276,"ĊĠĠĠĠĠĠĠĠ":277,"al":278,"de":279,"Ġc":280,"ar":281,");":282,"ion":283,"ĊĠĠĠ":284,"--":285,"it":286,"Ġ*":287,"ct":288,"he":289,"ss":290,"me":291,"ĊĠĠĠĠĠĠĠ":292,"**":293,"Ġ{":294,"ge":295,"ro":296,"</":297,"Ġ(":298,"is":299,"ic":300,"Ġf":301,"ur":302,"la":303,"=\"":304,"Ġp":305,"//":306,"ing":307,"if":308,"Ċĉĉ":309,"ent":310,"ce":311,"un":312,"Ċĉ":313,"ut":314,"Ġ<":315,"ĊĠ":316,"id":317,"Ġn":318,"Ġs":319,"Ġa":320,"lo":321,"Ġ0":322,"ed":323,"Ġre":324,"Ġb":325,"Ġthe":326,"->":327,"Ġ\"":328,"Ġ}":329,"tr":330,"co":331,"pe":332,"mp":333,"00":334,"Ġin":335,"ex":336,"ad":337,"ame":338,"ue":339,"ĊĠĠĠĠĠĠĠĠĠĠĠ":340,"----":341,"ate":342,"==":343,"Ġo":344,"li":345,"\">":346,"ul":347,"th":348,"ck":349,"ig":350,"il":351,"el":352,"Ġm":353,"()":354,"Ġv":355,"iv":356,"lass":357,"str":358,"Ġw":359,"Ġ'":360,"Ġd":361,"urn":362,"ĠĠĠĠĠĠĠĠĠĠĠĠĠĠĠĠ":363,"ation":364,"turn":365,"ĠĠĠĠĠĠĠ":366,"ch":367,"****":368,"get":369,"sp":370,"pt":371,"ot":372,"ht":373,"ol":374,"ĠS":375,"age":376,"et":377,"ction":378,"ype":379,"ab":380,"int":381,"ub":382,"Ġth":383,"ont":384,"es":385,"ap":386,"and":387,"um":388,"Ġif":389,"Ġ$":390,"Ġclass":391,"ĊĠĠĠĠĠ":392,"us":393,"Ġ1":394,"ĠC":395,"Ġh":396,"set":397,"Ġto":398,"ext":399,"In":400,"ĠT":401,"as":402,"def":403,"ine":404,"ort":405,"ew":406,"am":407,"ode":408,"\",":409,"Re":410,"ĠA":411,"Ġ*/":412,"ĊĠĠĠĠĠĠĠĠĠĠĠĠĠĠĠ":413,"ata":414,"end":415,"..":416,"ĊĊ":417,"ile":418,"up":419,"Ġ//":420,"ter":421,"lic":422,"::":423,"ect":424,"iz":425,"ĊĠĠĠĠĠĠĠĠĠĠĠĠĠĠĠĠ":426,"to":427,"em":428,"ra":429,"--------":430,"ri":431,"able":432,"od":433,"Ġreturn":434,"Ġof":435,"',":436,"IN":437,"Ġ-":438,"alue":439,"av":440,"Ġ&":441,"====":442,"ver":443,"Ċĉĉĉĉ":444,"Ġst":445,"ĠP":446,"ase":447,"(\"":448,"ff":449,"Ġis":450,"ER":451,"Ġfor":452,"our":453,"qu":454,"ption":455,"Ġ@":456,"ĊĊĠĠĠ":457,"ow":458,"ult":459,"/*":460,"Ġ+":461,"ack":462,"con":463,"();":464,"om":465,"Ġi":466,"********":467,"ref":468,"Ġthis":469,"ist":470,"all":471,"../":472,"ment":473,"Ġl":474,"))":475,"Ġe":476,"op":477,"Ċĉĉĉ":478,"te":479,"ize":480,"ĠN":481,"der":482,"ert":483,"ON":484,"ĠL":485,"ir":486,"unction":487,"Ġ2":488,"ource":489,"fo":490,"Ġcon":491,"RE":492,"div":493,"čĊ":494,"__":495,"ml":496,"td":497,"Ġ</":498,"Ġse":499,"ĠD":500,"ĠF":501,"ĠM":502,"sc":503,"name":504,"ke":505,"ject":506,"ublic":507,"uct":508,"span":509,"im":510,"></":511,"Ġg":512,"ans":513,"ers":514,"),":515,"ith":516,"Ġ.":517,"orm":518,"ĊĠĠĠĠĠĠĠĠĠĠĠĠĠĠĠĠĠĠĠĠĠĠĠĠ":519,"ac":520,"par":521,"return":522,"oid":523,"ĠI":524,"><":525,"##":526,"ĠG":527,"('":528,"Ġand":529,"Ġ[":530,"ssage":531,"ight":532,"lf":533,"ib":534,"this":535,"struct":536,"Ġde":537,"err":538,"tring":539,"Ex":540,"OR":541,"lu":542,"Ġr":543,"Ġ:":544,"ime":545,"nt":546,"html":547,"St":548,"ST":549,"os":550,"Ġor":551,"art":552,"put":553,"res":554,"EN":555,"oc":556,"Ġ==":557,"pro":558,"Ġbe":559,"dd":560,"ĠB":561,"ull":562,"ign":563,"Ġ=>":564,"ain":565,"are":566,"Ġtr":567,"ĊĠĠĠĠĠĠĠĠĠĠĠĠĠĠĠĠĠĠĠ":568,"Ġhref":569,"imp":570,"use":571,"Ġnew":572,"lock":573,"Ġint":574,"Ġ!":575,"out":576,"bject":577,"code":578,"est":579,"ag":580,"Ġ|":581,"type":582,"Ġpro":583,"ĠĠĠĠĠ":584,"../../":585,"atic":586,"AT":587,"ind":588,"Ġ#":589,"AR":590,"add":591,"loc":592,"act":593,"message":594,"que":595,"ath":596,"tp":597,"string":598,"AL":599,"oun":600,"Ġex":601,"Ġit":602,"Type":603,"arg":604,"Ġfunction":605,"Ġon":606,"oo":607,"ly":608,"Ġ/":609,"ĠO":610,"0000":611,"32":612,"Name":613,"rom":614,"data":615,"else":616,"ray":617,"dex":618,"ice":619,"vent":620,"source":621,"bu":622,"IT":623,"ser":624,"ace":625,"----------------":626,"ĊĊĠĠĠĠĠĠĠ":627,"UL":628,"com":629,"col":630,"SE":631,"ity":632,"define":633,").":634,"lay":635,"ure":636,"ial":637,"ip":638,"import":639,"ĠW":640,"ire":641,"DE":642,"Ġ>":643,"form":644,"ft":645,"list":646,"cont":647,"row":648,"Ġch":649,"pr":650,"01":651,"ĊĊĠ":652,"ĠE":653,"ma":654,"Ġun":655,"alse":656,"ĊĠĠ":657,"ve":658,"========":659,"ite":660,"fig":661,"sh":662,"Ġpublic":663,"Ġname":664,"ll":665,"Ġ_":666,"param":667,"ĊĠĠĠĠĠĠĠĠĠ":668,"Ġ)":669,"key":670,"ive":671,"px":672,"Pro":673,"));":674,"\");":675,"ay":676,"per":677,"trans":678,"Ġvoid":679,"omp":680,"one":681,"ĠU":682,"Ġtype":683,"String":684,"LE":685,"ition":686,"port":687,"Ġnot":688,"Ġan":689,"dev":690,"////":691,"ense":692,"iel":693,"ance":694,"lement":695,"http":696,"ĠH":697,"clu":698,"ield":699,"De":700,"ink":701,"Ġvalue":702,"Ġcont":703,"AN":704,"ost":705,"Ġwith":706,"Ġget":707,"Ġy":708,"****************":709,"Con":710,"ript":711,"Ġj":712,"Ġconst":713,"bo":714,"ID":715,"ree":716,"Ġself":717,"($":718,"ary":719,"Ġelse":720,"clude":721,"mo":722,"Id":723,"Ġ/*":724,"Ġdef":725,"cess":726,"ory":727,"pp":728,"Ġvar":729,"ord":730,"ress":731,"Cont":732,"quest":733,"val":734,"log":735,"ibut":736,"io":737,"ĠR":738,"Ġ&&":739,"ĠV":740,"ener":741,"List":742,"Ġ%":743,"']":744,"ault":745,"SS":746,"ber":747,"Ġwh":748,"ore":749,"ator":750,"\"><":751,"ange":752,"iew":753,"CT":754,"size":755,"ph":756,"ak":757,"://":758,"ant":759,"lation":760,"Ġal":761,"ass":762,"Ġset":763,"gro":764,"itle":765,"error":766,"ong":767,"heck":768,"ule":769,"user":770,"ild":771,"eng":772,"class":773,"Ċĉĉĉĉĉĉ":774,"Ġby":775,"To":776,"Ġdata":777,"ache":778,"En":779,"ix":780,"low":781,"file":782,"Ġ!=":783,"Ġnull":784,"read":785,"Ġme":786,"atch":787,"rc":788,"value":789,"Ġ\\":790,"reate":791,"Ġ3":792,"ang":793,"['":794,"Ġfalse":795,"oint":796,"ail":797,"var":798,"čĊč":799,"ĠRe":800,"app":801,"ill":802,"ated":803,"translation":804,"Se":805,"nb":806,"Ġthat":807,"ies":808,"yle":809,"line":810,"ULL":811,"10":812,"idth":813,"Ġas":814,"ception":815,"ĊĠĠĠĠĠĠĠĠĠĠĠĠĠĠĠĠĠĠĠĠĠĠĠ":816,"Ġid":817,"array":818,"Ġtrue":819,"Ġfile":820,"ide":821,"lect":822,"12":823,"ms":824,"ax":825,"16":826,"ME":827,"ĠĠĠĠĠĠ":828,"amp":829,"date":830,"rr":831,"},":832,"Ġuse":833,"ader":834,"static":835,"icense":836,"Value":837,"vice":838,"ument":839,"include":840,"riv":841,"urre":842,"MA":843,"nbsp":844,"thod":845,"ork":846,"ard":847,"],":848,"Ġsh":849,"Ġ);":850,"lab":851,"ength":852,"ĠIn":853,"ĠThe":854,"og":855,"TR":856,"Ġdo":857,"Ġ`":858,"ery":859,"odel":860,"IC":861,"ou":862,"Ch":863,"Data":864,"text":865,"\";":866,"und":867,"CO":868,"):":869,"ask":870,"ust":871,"back":872,"pert":873,"gs":874,"ww":875,"Ġ4":876,"/>":877,"čĊĠĠĠ":878,"atus":879,"UT":880,"64":881,"\":":882,"####":883,"];":884,"void":885,"unt":886,"ast":887,"ĠLicense":888,"of":889,"čĊĠĠĠĠĠĠĠ":890,"gr":891,"urrent":892,"pec":893,"\")":894,"Ġfrom":895,"be":896,"ptions":897,"self":898,"ĊĊĉ":899,"Ġ},":900,"PE":901,"11":902,"Ġline":903,"md":904,"FF":905,"Ġres":906,"Set":907,"js":908,"CH":909,"Ġat":910,"info":911,"inal":912,"sign":913,"right":914,"Ċĉĉĉĉĉ":915,"Ġ||":916,"ens":917,"Ġ__":918,"Exception":919,"Ġ(!":920,"new":921,"')":922,"Ar":923,"Ġx":924,"ave":925,"Ġu":926,"arch":927,"lient":928,"ence":929,"rror":930,"order":931,"ĠNULL":932,"čĊĉ":933,"umber":934,"yst":935,"LA":936,"own":937,"br":938,"RO":939,"Ġcol":940,"ec":941,"reak":942,"ION":943,"spon":944,"pre":945,"++":946,"Ġ/**":947,"Get":948,"arget":949,"let":950,"Col":951,"\"></":952,"rame":953,"isp":954,"eb":955,"Ġ?":956,"ry":957,"Me":958,"ystem":959,"Ġend":960,"Ġstring":961,"ffer":962,"');":963,"IG":964,"index":965,"rite":966,"load":967,"AD":968,"link":969,"location":970,"Ġ--":971,"ound":972,"ach":973,"\"/>":974,"].":975,"ty":976,"02":977,"Object":978,"min":979,"Ġcom":980,"opy":981,"LO":982,"ne":983,"mit":984,"table":985,"stance":986,"top":987,"ger":988,"ob":989,"comp":990,"().":991,"ount":992,"script":993,"Ġ5":994,"qual":995,"his":996,"Ġso":997,"const":998,"Ġpar":999,"ssion":1000,"oul":1001,"/**":1002,"Res":1003,"Ġcase":1004,"di":1005,"ool":1006,"tribut":1007,"odule":1008,"ĊĠĠĠĠĠĠĠĠĠĠĠĠĠ":1009,"for":1010,"Par":1011,"());":1012,"ould":1013,"Error":1014,"hed":1015,"yn":1016,"Ġchar":1017,"Ġare":1018,"item":1019,"Ser":1020,"reg":1021,"so":1022,"ĠString":1023,"ere":1024,"Ke":1025,"PI":1026,"ream":1027,"Ġstatic":1028,"(&":1029,"left":1030,"ersion":1031,"Ġk":1032,"ava":1033,"ifi":1034,"ann":1035,"Ġadd":1036,"public":1037,"ton":1038,"emp":1039,"function":1040,"org":1041,"File":1042,"nav":1043,"Ġsize":1044,"Key":1045,"._":1046,"utton":1047,"Ġ<<":1048,"test":1049,"Ġcomp":1050,"INT":1051,"ssert":1052,"time":1053,"Bu":1054,"lean":1055,"map":1056,"ther":1057,"Ġarray":1058,"mb":1059,"Ġhe":1060,"(),":1061,"GE":1062,"pect":1063,"late":1064,"////////":1065,"url":1066,"AB":1067,"sponse":1068,"ilter":1069,"ash":1070,"quire":1071,"signed":1072,"ee":1073,"':":1074,"='":1075,"count":1076,"Ġout":1077,"arent":1078,"IS":1079,"AC":1080,"Ġimp":1081,"';":1082,"uth":1083,"rivate":1084,"tem":1085,"Ġtest":1086,"irst":1087,"perty":1088,"space":1089,"sub":1090,"indow":1091,"================":1092,"bar":1093,"ĠQ":1094,"};":1095,"Ġwe":1096,"25":1097,"000":1098,"Ġbu":1099,"33":1100,"Ġli":1101,"face":1102,"Sc":1103,"Test":1104,"TE":1105,"ĊĠĠĠĠĠĠĠĠĠĠĠĠĠĠĠĠĠĠĠĠĠĠĠĠĠĠĠĠĠĠĠĠ":1106,"mary":1107,"path":1108,"Ġen":1109,"ting":1110,"ameter":1111,"ody":1112,"Tr":1113,"gin":1114,"Ġstruct":1115,"Ġcan":1116,"ern":1117,"UR":1118,"cl":1119,"--------------------------------":1120,"unc":1121,"ĉĉĉĉ":1122,"mand":1123,"Ġorg":1124,"config":1125,"UN":1126,"ded":1127,"ud":1128,"osition":1129,"Un":1130,"Ġresult":1131,"20":1132,"cp":1133,"ĠThis":1134,"ING":1135,"ccess":1136,"Ġprivate":1137,"gle":1138,"Event":1139,"Comp":1140,"Node":1141,"Info":1142,"work":1143,"nd":1144,"Item":1145,"ĠJ":1146,"label":1147,"MP":1148,"Ġwill":1149,"group":1150,"ual":1151,"sum":1152,"99":1153,"Time":1154,"Ġsc":1155,"length":1156,"loat":1157,"over":1158,"Ġlist":1159,"())":1160,"isplay":1161,"Ġ///":1162,"block":1163,"color":1164,"print":1165,"rap":1166,"At":1167,"fer":1168,"ware":1169,"ep":1170,"istr":1171,"ĊĊĠĠĠĠĠĠĠĠĠĠĠ":1172,"icon":1173,"move":1174,"TY":1175,"15":1176,"ify":1177,"ocument":1178,"pack":1179,"enu":1180,"input":1181,"!--":1182,"IL":1183,"util":1184,"Ġerror":1185,"ĊĠĠĠĠĠĠĠĠĠĠĠĠĠĠĠĠĠĠĠĠĠĠĠĠĠĠĠ":1186,"ground":1187,"cc":1188,"rit":1189,"action":1190,"roup":1191,"state":1192,"čĊĠĠĠĠĠĠĠĠĠĠĠ":1193,"roll":1194,"lete":1195,"ler":1196,"umn":1197,"Text":1198,"node":1199,"db":1200,"andle":1201,"ĠĠĠĠĠĠĠĠĠĠĠĠĠĠĠĠĠĠĠĠĠĠĠĠĠĠĠĠĠĠĠĠ":1202,"State":1203,"Ġup":1204,"rol":1205,"fore":1206,"ses":1207,"len":1208,"Ġyou":1209,"ta":1210,"page":1211,"vel":1212,"By":1213,"ED":1214,"TH":1215,"Ġkey":1216,"Ġarg":1217,"Ġval":1218,"php":1219,"ark":1220,"[]":1221,"init":1222,"mi":1223,"ific":1224,"Ġ((":1225,"ENT":1226,"=\"../../":1227,"Class":1228,"onent":1229,"Ġobject":1230,"ui":1231,"lags":1232,"start":1233,"ample":1234,"last":1235,"US":1236,"Ġ8":1237,"Add":1238,"Element":1239,"lection":1240,"tern":1241,".</":1242,"\"\"":1243,"ations":1244,"Ġall":1245,"view":1246,"title":1247,"irect":1248,"bt":1249,"base":1250,"14":1251,"ES":1252,"pen":1253,"sk":1254,"buf":1255,"case":1256,"no":1257,"********************************":1258,"Ġtitle":1259,"Index":1260,"off":1261,"Map":1262,"field":1263,"endif":1264,"ake":1265,"width":1266,"ute":1267,"ale":1268,"AS":1269,"ken":1270,"oolean":1271,"18":1272,"ector":1273,"OT":1274,"ps":1275,"sed":1276,"query":1277,"try":1278,"mage":1279,"scri":1280,"uble":1281,"event":1282,"ys":1283,"do":1284,"its":1285,"mem":1286,"ush":1287,"*/":1288,"image":1289,"ined":1290,"Ġback":1291,"66":1292,"using":1293,"not":1294,"ager":1295,"Ġfinal":1296,"Ġassert":1297,"CON":1298,"ERR":1299,"ret":1300,"DI":1301,"result":1302,"View":1303,"style":1304,"Ġcontent":1305,"word":1306,"https":1307,"Ġ-->":1308,"ainer":1309,"char":1310,"Ġ+=":1311,"quot":1312,"((":1313,"ia":1314,"Sh":1315,"ick":1316,"lace":1317,"Ġstr":1318,"ftware":1319,"CE":1320,"box":1321,"ie":1322,"af":1323,"04":1324,"ĊĠĠĠĠĠĠĠĠĠĠĠĠ":1325,"mon":1326,"13":1327,"ride":1328,"Config":1329,"red":1330,"TD":1331,"EX":1332,"default":1333,"lat":1334,"Com":1335,"Ġtime":1336,"argin":1337,"max":1338,"entry":1339,"raw":1340,"sm":1341,"čĊĉĉ":1342,"Size":1343,"Ġbreak":1344,"by":1345,"Ġspec":1346,"ĠK":1347,"ld":1348,"ister":1349,"num":1350,"tx":1351,"priv":1352,"Ġro":1353,"OP":1354,"Ġerr":1355,"create":1356,"valid":1357,"allback":1358,"lob":1359,"ook":1360,"ell":1361,"Ġsrc":1362,"esc":1363,"55":1364,"www":1365,"Ġunder":1366,"Qu":1367,"tom":1368,"cur":1369,"upport":1370,"tribute":1371,"Field":1372,"abled":1373,"assert":1374,"Array":1375,"Form":1376,"Path":1377,"net":1378,">&":1379,"SI":1380,"py":1381,"content":1382,"anager":1383,"fin":1384,";&":1385,"24":1386,"Ġapp":1387,"Ġser":1388,"bug":1389,"from":1390,"uto":1391,"object":1392,"ng":1393,"He":1394,"next":1395,"ning":1396,"andler":1397,"TI":1398,"ock":1399,"Context":1400,"Message":1401,"uint":1402,"verride":1403,"lib":1404,"uration":1405,"dt":1406,"ĠIf":1407,"Ġdefault":1408,"Ġper":1409,"OL":1410,"body":1411,"rint":1412,"core":1413,"Request":1414,"temp":1415,"pi":1416,"čĊĠ":1417,"Ġthrow":1418,";</":1419,"ATE":1420,"cond":1421,"head":1422,"ox":1423,"Ġhave":1424,"Ġ});":1425,"Equal":1426,"Ġbool":1427,"EL":1428,"led":1429,"ĠGet":1430,"Ġ6":1431,"mat":1432,"ome":1433,"MO":1434,"Ġshould":1435,"FI":1436,"ync":1437,"AME":1438,"fs":1439,"ished":1440,"ĠAN":1441,"pos":1442,"Ġno":1443,"check":1444,"DO":1445,"ich":1446,"local":1447,"ptr":1448,"layer":1449,"Ġext":1450,"vers":1451,"Code":1452,"press":1453,"summary":1454,"80":1455,"css":1456,"Ġtext":1457,"write":1458,"point":1459,"Ġtrans":1460,"ature":1461,"Ġreg":1462,"``":1463,"Ġversion":1464,"BU":1465,"context":1466,"ĊĠĠĠĠĠĠĠĠĠĠĠĠĠĠĠĠĠĠĠĠĠĠĠĠĠĠĠĠĠĠĠĠĠĠĠĠĠĠĠĠ":1467,"Ġle":1468,"Ġnode":1469,"Ġany":1470,"func":1471,"Th":1472,"'s":1473,"adding":1474,"Ġrequest":1475,"dir":1476,"istribut":1477,"ible":1478,"Ġne":1479,"tings":1480,"Ġuser":1481,"ML":1482,"Ġ===":1483,"api":1484,"IP":1485,"lt":1486,"TYPE":1487,"])":1488,"ottom":1489,"30":1490,"SC":1491,"Ġcolor":1492,"Ġsub":1493,"NU":1494,"Ġborder":1495,"ĊĊĠĠĠĠĠ":1496,"Ġcode":1497,"Ġevent":1498,"sw":1499,"An":1500,"Ġcurrent":1501,"old":1502,"the":1503,"17":1504,"opyright":1505,"CK":1506,"Ġcheck":1507,"status":1508,"dis":1509,"apt":1510,"lang":1511,"module":1512,"########":1513,"SP":1514,"lose":1515,"'t":1516,"Ġ};":1517,"=\"+":1518,"ĠX":1519,"Ġstd":1520,"annel":1521,"22":1522,"ider":1523,"ner":1524,"Ġ10":1525,"ected":1526,"Ġwidth":1527,"19":1528,"Ġmethod":1529,"Ġhas":1530,"UE":1531,"web":1532,"Up":1533,"ename":1534,"select":1535,"Ġtarget":1536,"ok":1537,"ql":1538,"Le":1539,"ä¸":1540,"AP":1541,"ĠY":1542,"ts":1543,"cord":1544,"Log":1545,"ins":1546,"idget":1547,"tes":1548,"ĊĠĠĠĠĠĠĠĠĠĠĠĠĠĠĠĠĠĠĠĠĠĠĠĠĠĠĠĠĠĠĠ":1549,"button":1550,"ics":1551,"Ġz":1552,"cept":1553,"model":1554,"PO":1555,"gt":1556,"las":1557,"Ġjava":1558,"Ġstart":1559,"++)":1560,"cho":1561,"Ġlong":1562,"til":1563,"rep":1564,"lugin":1565,"ĊĠĠĠĠĠĠ":1566,"Ġrequire":1567,"ãģ":1568,"Ġwhen":1569,"Service":1570,"=\"#":1571,"Result":1572,"ilder":1573,"Ġ7":1574,"apache":1575,"current":1576,"Table":1577,"nection":1578,"Ġinter":1579,"src":1580,"ĠĠĠĠĠĠĠĠĠĠĠ":1581,"Int":1582,"HE":1583,"Ġstyle":1584,"ux":1585,"201":1586,"Ġuint":1587,"Color":1588,"wh":1589,"Ġconfig":1590,"Ġ:=":1591,"CL":1592,"ABLE":1593,"enter":1594,"UP":1595,"Ġlog":1596,"Ġnumber":1597,"Of":1598,"Ġused":1599,"itor":1600,"Ġ($":1601,"options":1602,"lear":1603,"50":1604,"ĠSt":1605,"Not":1606,"oogle":1607,"ise":1608,"ET":1609,"bl":1610,"client":1611,"Ġ\"\\":1612,"Ð°":1613,"ĠCon":1614,"package":1615,"pc":1616,"Ġmay":1617,"ions":1618,"mod":1619,"Query":1620,"font":1621,"addr":1622,"Ġbackground":1623,"down":1624,"Model":1625,"break":1626,"34":1627,"Ġfield":1628,"Ġstate":1629,"Def":1630,"=\"../":1631,"ĠGener":1632,"=\"../../../../":1633,"Or":1634,"ally":1635,"Ġ201":1636,"ĠCON":1637,"device":1638,"Ġindex":1639,"we":1640,"true":1641,"itch":1642,"Ġitem":1643,"ĠSet":1644,"license":1645,"28":1646,"ZE":1647,"header":1648,"ified":1649,"Count":1650,"ved":1651,"enc":1652,"ait":1653,"unsigned":1654,"oto":1655,"Loc":1656,"Out":1657,"ializ":1658,"inter":1659,"tot":1660,"The":1661,"ices":1662,"ĊĉĠĠĠ":1663,"Ġinput":1664,"Ġoff":1665,"Ġblock":1666,"Ġread":1667,"btn":1668,"ART":1669,"Ġret":1670,"ĠSystem":1671,"IO":1672,"mt":1673,"VER":1674,"args":1675,"ical":1676,"ĠOR":1677,"ren":1678,"FA":1679,"[\"":1680,"pl":1681,"attr":1682,"ustom":1683,"ĠÐ":1684,"search":1685,"offset":1686,"ilename":1687,">(":1688,"uthor":1689,"ORT":1690,"gram":1691,"rop":1692,"Ġdistribut":1693,"User":1694,"scription":1695,"ef":1696,"Is":1697,"pected":1698,"iter":1699,"OUT":1700,"doc":1701,"lobal":1702,"On":1703,"Ġbase":1704,"post":1705,"lin":1706,"tail":1707,"Manager":1708,"ĠOF":1709,"...":1710,"ateg":1711,"40":1712,"Group":1713,"Ġelement":1714,"pan":1715,"Inter":1716,"Ġmax":1717,"ference":1718,"rag":1719,"AM":1720,"Ġhttp":1721,"rl":1722,"aw":1723,"Point":1724,"ĠIN":1725,"Ġunsigned":1726,"mpty":1727,"obj":1728,"host":1729,"request":1730,"]);":1731,"ca":1732,"77":1733,"Ġlo":1734,"For":1735,"vert":1736,"frame":1737,"cope":1738,"SH":1739,"ĊĊĉĉ":1740,"ONT":1741,"height":1742,"req":1743,"mode":1744,"ĠPro":1745,"iled":1746,"IM":1747,"NO":1748,"Reg":1749,"adi":1750,"ifier":1751,"Ġcreate":1752,"method":1753,"iable":1754,"REG":1755,"Ġmargin":1756,"active":1757,"actory":1758,"VAL":1759,"IF":1760,"uccess":1761,"bottom":1762,"////////////////":1763,"Ġmessage":1764,"fa":1765,"Ð¾":1766,"Ġtable":1767,"lication":1768,"Ġpre":1769,"has":1770,"ameters":1771,"SET":1772,"HT":1773,"lick":1774,"REF":1775,"tag":1776,"irt":1777,"ai":1778,"lasses":1779,"menu":1780,"Ġcopy":1781,"Override":1782,"Ġinstance":1783,"ams":1784,"Ġwhich":1785,"){":1786,"Ġpath":1787,"lig":1788,"tected":1789,"ctx":1790,"<!--":1791,"append":1792,"App":1793,"mm":1794,"open":1795,"Ġsource":1796,"ï¼":1797,"Ġonly":1798,"sg":1799,"ãĥ":1800,"DB":1801,"Ġinit":1802,"MM":1803,"Ġab":1804,"ape":1805,"dr":1806,"lease":1807,"queue":1808,"option":1809,"Ġpoint":1810,"TO":1811,"ithub":1812,"Property":1813,"bj":1814,"23":1815,"Stream":1816,"Ġpage":1817,"roller":1818,"60":1819,"child":1820,"version":1821,"čĊĠĠĠĠĠĠĠĠĠĠĠĠĠĠĠ":1822,"With":1823,"format":1824,"null":1825,"uage":1826,"mission":1827,"Ðµ":1828,"Ġother":1829,"][":1830,"vide":1831,"Ġcall":1832,"lable":1833,"Ġcontext":1834,"Ġmod":1835,"Val":1836,"EE":1837,"ĠEx":1838,"private":1839,"img":1840,"FONT":1841,")</":1842,"lag":1843,"Trans":1844,"fe":1845,"du":1846,"CC":1847,"ĠĠĠĠĠĠĠĠĠ":1848,"idd":1849,"msg":1850,"ater":1851,"buffer":1852,"her":1853,"27":1854,"Desc":1855,"std":1856,"Be":1857,"emplate":1858,"Ġbut":1859,"ank":1860,"Ġoptions":1861,"son":1862,"ĠPublic":1863,"Status":1864,"Ġnil":1865,"github":1866,"flags":1867,"<?":1868,"reen":1869,"Ġone":1870,"Util":1871,"ERT":1872,"cs":1873,"Base":1874,"push":1875,"Ġ$(":1876,"parent":1877,"29":1878,"Ġ->":1879,"Ġ,":1880,"Ġright":1881,"Ġad":1882,"100":1883,"older":1884,"filter":1885,"Client":1886,"Ġfa":1887,"PRO":1888,"88":1889,"RAN":1890,"ffff":1891,"Ġpart":1892,"VE":1893,"update":1894,"Lo":1895,"namespace":1896,"](":1897,"Instance":1898,"Ġ*)":1899,"Ġdis":1900,"As":1901,"target":1902,"Ġprint":1903,"Content":1904,"Action":1905,"Response":1906,"LASS":1907,"ends":1908,"Date":1909,"Ġ\"\"\"":1910,"vis":1911,"MS":1912,"ĊĠĠĠĠĠĠĠĠĠĠĠĠĠĠĠĠĠ":1913,"params":1914,"first":1915,"ume":1916,"03":1917,"Ġ>=":1918,"meta":1919,"perties":1920,"ĠUn":1921,"Image":1922,"Ġ9":1923,"lp":1924,"END":1925,"ĠCopyright":1926,"ote":1927,"ba":1928,"Ġfont":1929,"ative":1930,"Ġyour":1931,"26":1932,"44":1933,"section":1934,"ster":1935,"Str":1936,"ĠAr":1937,"free":1938,"cmd":1939,"ĠGNU":1940,"LI":1941,"my":1942,"From":1943,"asc":1944,"Ġ/>":1945,"dl":1946,"teger":1947,"FIG":1948,"main":1949,"\"),":1950,"igh":1951,"PC":1952,"à¤":1953,"Ġ()":1954,"ãĤ":1955,"Line":1956,"Ġimport":1957,"Ġdistributed":1958,"ĠGeneral":1959,"omain":1960,"Ad":1961,"Method":1962,"Input":1963,"fd":1964,"Ġlen":1965,"ender":1966,"formation":1967,"Bar":1968,"ict":1969,"ternal":1970,"Ġinst":1971,"ats":1972,"imer":1973,"Ġboolean":1974,"element":1975,"\"]":1976,"NE":1977,"DR":1978,"bit":1979,"ialog":1980,"39":1981,"Sub":1982,"navbar":1983,"conn":1984,"(_":1985,"ug":1986,"čĊĉĉĉ":1987,"Ġact":1988,"jav":1989,"ymb":1990,"irtual":1991,"Ġmore":1992,"Ð¸":1993,"08":1994,"tab":1995,"Frame":1996,"75":1997,"Al":1998,"bool":1999,"Ċĉĉĉĉĉĉĉ":2000,"///":2001,"false":2002,"Buffer":2003,"ments":2004,"Lay":2005,"Ġtry":2006,"tree":2007,"ITY":2008,"Ġvalues":2009,"Ġheight":2010,"ĊĠĠĠĠĠĠĠĠĠĠĠĠĠĠĠĠĠĠĠĠĠĠĠĠĠĠĠĠĠĠĠĠĠĠĠ":2011,"ĠĠĠĠĠĠĠĠĠĠ":2012,"%;":2013,"heet":2014,"Ġoffset":2015,"'),":2016,"Ġthen":2017,"ymbol":2018,"Ġoper":2019,"cache":2020,"cf":2021,"google":2022,"CODE":2023,"FO":2024,"STR":2025,"35":2026,"Ġmust":2027,"ĉĉĉ":2028,"Ġdisplay":2029,"stream":2030,"Block":2031,"Ġrep":2032,"({":2033,"ĠTr":2034,"GL":2035,"Ġdocument":2036,"ĠSee":2037,"Window":2038,"All":2039,"ns":2040,"medi":2041,"ĊĉĠ":2042,"Ġq":2043,"ĠSo":2044,"Page":2045,"Select":2046,"ĠANY":2047,"oin":2048,"Nav":2049,"PL":2050,"proto":2051,"Box":2052,"uper":2053,"kit":2054,"before":2055,"Ġrun":2056,"ower":2057,"Ref":2058,"find":2059,"Ġfirst":2060,"Ġchange":2061,"================================":2062,"raph":2063,"duct":2064,"Ġfloat":2065,"Ġ100":2066,"ĠReturn":2067,"Change":2068,"Ġleft":2069,"Tra":2070,"CP":2071,"refer":2072,"SIZE":2073,"remove":2074,"Ġoutput":2075,"ERROR":2076,"Ġ16":2077,"lem":2078,"ormal":2079,"38":2080,"cket":2081,"mark":2082,"Ed":2083,"05":2084,"Source":2085,"printf":2086,"river":2087,"atab":2088,"Ġsizeof":2089,"call":2090,"defined":2091,"pend":2092,"ollow":2093,"lex":2094,"ility":2095,"cd":2096,"Ġwork":2097,"ding":2098,"Ġmem":2099,"server":2100,"ors":2101,"ÑĤ":2102,"che":2103,"sd":2104,"Handler":2105,"});":2106,"ension":2107,"opt":2108,"Ġcal":2109,"Ġusing":2110,"finished":2111,"strong":2112,"Resource":2113,"KE":2114,"Ġag":2115,"abel":2116,"36":2117,"lot":2118,"show":2119,"Builder":2120,"Ġmin":2121,"Imp":2122,"Ġrel":2123,"cpu":2124,"Check":2125,"Ġsoftware":2126,"flow":2127,"00000000":2128,"roid":2129,"No":2130,"ĠWAR":2131,"Ġurl":2132,"End":2133,"resent":2134,"Component":2135,"ULT":2136,"Ġwhile":2137,"float":2138,"ci":2139,"çļ":2140,".$":2141,"xy":2142,"Ġwas":2143,"ates":2144,"ITH":2145,"çļĦ":2146,"aint":2147,"Format":2148,"ĊĊĠĠĠĠĠĠĠĠĠĠĠĠĠĠĠ":2149,"rt":2150,"56":2151,"BUG":2152,"True":2153,"Ġdouble":2154,"\"))":2155,"fter":2156,"refix":2157,"alloc":2158,"Ġnum":2159,"ALL":2160,"Ġoption":2161,"čĊĠĠĠĠ":2162,"Ġmap":2163,"Start":2164,"control":2165,"assword":2166,"NAME":2167,"entity":2168,"ither":2169,"rows":2170,"cre":2171,"riter":2172,"Command":2173,"Var":2174,"close":2175,"ãĢ":2176,"irectory":2177,"Ġpadding":2178,"json":2179,"equal":2180,"Ġneed":2181,"ascript":2182,"ures":2183,"atabase":2184,"ceiv":2185,"unfinished":2186,"000000":2187,"vider":2188,"border":2189,"cast":2190,"ĠĊ":2191,"aa":2192,"spec":2193,"Ġac":2194,"display":2195,"png":2196,"IGN":2197,"New":2198,"Ġposition":2199,"ĠEX":2200,"rix":2201,"template":2202,"COL":2203,"ernal":2204,"Function":2205,"ĠList":2206,"Number":2207,"ĠNone":2208,"store":2209,"21":2210,"apter":2211,"any":2212,"Ġla":2213,"Ġsp":2214,"GET":2215,"Link":2216,"ackage":2217,"78":2218,"debug":2219,"oot":2220,"Default":2221,"change":2222,"System":2223,"number":2224,"Ġus":2225,"PR":2226,"pri":2227,"ACK":2228,"ĠDe":2229,"ating":2230,"tt":2231,"Ġcount":2232,"').":2233,"Per":2234,"CR":2235,"Ġinclude":2236,"ov":2237,"ift":2238,"\\\"":2239,"uid":2240,"lied":2241,"totype":2242,"MD":2243,"tributes":2244,"Attribute":2245,"leg":2246,"ĠYou":2247,"ĠWARRAN":2248,"orage":2249,"MAX":2250,"output":2251,"light":2252,"Hel":2253,"Ġselect":2254,"root":2255,"pression":2256,"orre":2257,"Factory":2258,"ification":2259,"CTION":2260,"ĠSoftware":2261,"ĠObject":2262,"SY":2263,"anguage":2264,"06":2265,"Options":2266,"Ġnet":2267,"Ġ**":2268,"09":2269,"IR":2270,"Ġgener":2271,"PORT":2272,"48":2273,"ĠĠĠĠĠĠĠĠĠĠĠĠ":2274,"adata":2275,"ĠCh":2276,"Button":2277,"sheet":2278,"Ġupdate":2279,"Mem":2280,"Filter":2281,"Row":2282,"container":2283,"uch":2284,"\").":2285,"rid":2286,"Ġar":2287,"align":2288,"arning":2289,"Ð½":2290,"ular":2291,"tool":2292,"Column":2293,"()->":2294,"less":2295,"Ġbuffer":2296,"run":2297,"ansp":2298,"ĠHREF":2299,"Act":2300,"Ġnext":2301,"Ġlast":2302,"ifdef":2303,"olic":2304,"ared":2305,"200":2306,"Ġtra":2307,"Ġnone":2308,"ubl":2309,")(":2310,"javascript":2311,"gn":2312,"ecut":2313,"STAT":2314,"po":2315,"SK":2316,"ĊĊĊĊ":2317,"iven":2318,"Mode":2319,"07":2320,"annot":2321,"ĠĠĠĠĠĠĠĠĠĠĠĠĠĠĠ":2322,"tmp":2323,"ĠIS":2324,"require":2325,"java":2326,"ish":2327,"Gener":2328,"ains":2329,"ĠDE":2330,"Ġvalid":2331,"ĠTest":2332,"ATA":2333,"card":2334,"37":2335,"Ġwithout":2336,"Version":2337,"FLA":2338,"Off":2339,"parse":2340,"ĠCLASS":2341,"Ġsupport":2342,"Ġauto":2343,"Ġstatus":2344,"imple":2345,"tails":2346,"UB":2347,"Ġformat":2348,"Ġ200":2349,"MB":2350,"export":2351,"Token":2352,"Ġover":2353,"unk":2354,"Ġaddress":2355,"Ġ;":2356,"ÑĢ":2357,"Ġass":2358,"Label":2359,"ls":2360,"Ġresponse":2361,"Ġecho":2362,"Ġfollow":2363,"Ġter":2364,"Ġmy":2365,"ĊĠĠĠĠĠĠĠĠĠĠ":2366,"ym":2367,"ialize":2368,"Length":2369,"goto":2370,"vm":2371,"Ġgroup":2372,"ĠINT":2373,"instance":2374,"gener":2375,"ASE":2376,"$(":2377,"oper":2378,"ĠAdd":2379,"Ġtop":2380,"Ġprogram":2381,"window":2382,"handle":2383,"Ġmode":2384,"Ġinto":2385,"Met":2386,"Ġsw":2387,"match":2388,"ategory":2389,"task":2390,"idden":2391,"mut":2392,"xx":2393,"ï¼Į":2394,"sol":2395,"air":2396,"Tag":2397,"86":2398,",\"":2399,"Ġmodule":2400,"Ġdoes":2401,"Ġ]":2402,"ĠGL":2403,"Ġfilename":2404,"ero":2405,"Ġeither":2406,"Create":2407,"common":2408,"level":2409,"AGE":2410,"cal":2411,"Style":2412,"59":2413,"AND":2414,"Ġ>>":2415,"Equals":2416,"CI":2417,"ingle":2418,"Read":2419,"env":2420,"inue":2421,"Ġparent":2422,"position":2423,"And":2424,"Ġclient":2425,"OF":2426,"Ġcommand":2427,"Ġthrows":2428,"INE":2429,"PRE":2430,"ĠWITH":2431,"CHAN":2432,"adius":2433,"Ġfree":2434,"tra":2435,"Ġdefined":2436,"Cell":2437,"desc":2438,"Oper":2439,"Ġprotected":2440,"Null":2441,"RL":2442,"hash":2443,"iff":2444,"Ġalign":2445,"build":2446,"\"));":2447,"ĊĠĠĠĠĠĠĠĠĠĠĠĠĠĠ":2448,"uments":2449,"ixed":2450,"xml":2451,"++;":2452,"cb":2453,"si":2454,"untime":2455,"udio":2456,"Entry":2457,"ven":2458,"Ġwrite":2459,"lip":2460,"reference":2461,"Ġdevice":2462,"latform":2463,"way":2464,"à¦":2465,"igger":2466,"čĊčĊ":2467,"BO":2468,"structor":2469,"Ġop":2470,"ru":2471,"Ġrequired":2472,"Child":2473,"Arg":2474,"sole":2475,"mask":2476,"ĠSe":2477,"TP":2478,"resource":2479,"Ġ<=":2480,"vo":2481,"Ġ{@":2482,"\\\\":2483,"Ġmodel":2484,"54":2485,"response":2486,"','":2487,"XX":2488,"copy":2489,"empty":2490,"description":2491,"Ġmatch":2492,"olicy":2493,"hover":2494,"Ġimage":2495,"register":2496,"UI":2497,"76":2498,"ists":2499,"hema":2500,"SD":2501,"dition":2502,"ops":2503,"Ġ(*":2504,"Listener":2505,"rowser":2506,"bin":2507,"ĠID":2508,"ready":2509,"side":2510,"TER":2511,"SR":2512,"Ġ[]":2513,"df":2514,"AG":2515,"prototype":2516,"Ġcur":2517,"Ã©":2518,"rs":2519,"FLAG":2520,"Cache":2521,"with":2522,"ffect":2523,"Ġlength":2524,"ik":2525,"ized":2526,"attern":2527,"})":2528,"Ġargs":2529,"ensor":2530,"=>":2531,"Ġ),":2532,"resh":2533,"ĊĠĠĠĠĊĠĠĠ":2534,"Ġel":2535,"gress":2536,">,":2537,"Ġav":2538,"&#":2539,"rypt":2540,"Ext":2541,"ĠRE":2542,"'>":2543,"iss":2544,"webkit":2545,"Ġsk":2546,"SA":2547,"Char":2548,"Ġport":2549,"Ġextends":2550,"Ġmake":2551,"inst":2552,"ĠCont":2553,"Ġgiven":2554,"Ġlink":2555,"pu":2556,"74":2557,"Ġimplement":2558,"(*":2559,"SON":2560,"property":2561,"ĠTHE":2562,"Init":2563,"icle":2564,"sor":2565,"author":2566,"ĠĠĠĠĠĠĠĠĠĠĠĠĠ":2567,"Update":2568,":</":2569,"ILITY":2570,"idx":2571,"plugin":2572,"drop":2573,"cle":2574,"Pos":2575,"part":2576,"Ċĉĉĉĉĉĉĉĉĉĉ":2577,"fn":2578,"layout":2579,"Return":2580,"Width":2581,"Ġprocess":2582,"Ġfound":2583,"column":2584,"Ġco":2585,"}}":2586,"åı":2587,"Ġed":2588,"ntity":2589,"Icon":2590,"Menu":2591,"Ġ<!--":2592,"Ġcallback":2593,"see":2594,"ĠVAL":2595,"Ġ?>":2596,"Ġ!==":2597,"Ġsol":2598,"process":2599,"čĊčĊĠĠĠ":2600,"man":2601,"----------------------------------------------------------------":2602,"acket":2603,"SO":2604,"enum":2605,"Ġinformation":2606,"################":2607,"Target":2608,"andom":2609,"Ġbit":2610,"%%":2611,"Ġinline":2612,"<<":2613,"ĠNOT":2614,"Ġlet":2615,"rapper":2616,"Ġhandle":2617,"ĠMe":2618,"ĠTh":2619,"nown":2620,"pell":2621,"Address":2622,"ĊĉĊ":2623,"linux":2624,"Valid":2625,")))":2626,"oundation":2627,"double":2628,"Ġ++":2629,"DD":2630,"att":2631,"89":2632,"Ġfiles":2633,"ggle":2634,"da":2635,"ince":2636,"Ht":2637,"OS":2638,"ful":2639,"IB":2640,"conf":2641,"ious":2642,"31":2643,"ĠComp":2644,"Ñģ":2645,"ouse":2646,"Output":2647,"session":2648,"ITE":2649,"widget":2650,"Ġlabel":2651,"ient":2652,"PH":2653,"thing":2654,"Ġ(\"":2655,"undle":2656,"apping":2657,"ĠZ":2658,"Ġresource":2659,"Ġexpect":2660,"bind":2661,"ily":2662,"Ġobj":2663,"clear":2664,"Ġcatch":2665,"atrix":2666,"email":2667,"quence":2668,"iler":2669,"čĊĠĠĠĠĠ":2670,"byte":2671,"ORM":2672,"Max":2673,"send":2674,"```":2675,"Url":2676,"Task":2677,"Ġsome":2678,"QL":2679,"Ġview":2680,"OK":2681,"Ġrange":2682,"irq":2683,"dest":2684,"Ġwrit":2685,"ĠCreate":2686,"document":2687,"Interface":2688,"licenses":2689,"Part":2690,"ĠWITHOUT":2691,"Ġaction":2692,"Ġproperty":2693,"Ð¾Ð":2694,"Ptr":2695,"Ġinfo":2696,"Ġwindow":2697,"utils":2698,"FAULT":2699,"arr":2700,"ĠFile":2701,"ATION":2702,"Ġinterface":2703,"DC":2704,"fr":2705,"ORD":2706,"ĠArray":2707,"Ġlimit":2708,"wo":2709,"Ġfilter":2710,"COLOR":2711,"ä»":2712,"ency":2713,"command":2714,"49":2715,"Ġfollowing":2716,"vices":2717,"stract":2718,"ENSE":2719,"mer":2720,"Tree":2721,"entifier":2722,"Position":2723,"API":2724,"ultip":2725,"wait":2726,"ities":2727,"Sp":2728,"Ġlocal":2729,"Ġafter":2730,"stant":2731,"Ġprovide":2732,"Layout":2733,"ĊĠĠĠĠĠĠĠĠĠĠĠĠĠĠĠĠĠĠĠĠĠĠĠĠĠĠĠĠĠĠĠĠĠĠĠĠĠĠĠ":2734,"URL":2735,"ONE":2736,"Server":2737,"URE":2738,"ear":2739,"stylesheet":2740,"This":2741,"./":2742,"panel":2743,"Ġallow":2744,"foot":2745,"Ġbefore":2746,"sets":2747,"79":2748,"Search":2749,"INS":2750,"Collection":2751,"ling":2752,"---":2753,"Spec":2754,"Ġsign":2755,"Ġ12":2756,"fc":2757,"Script":2758,"ription":2759,"Ġframe":2760,"Ġ{}":2761,"'],":2762,"Ġimplied":2763,"Ġ20":2764,"ron":2765,"dec":2766,"Control":2767,"Ġcre":2768,"Pre":2769,"address":2770,"adow":2771,"****************************************************************":2772,"ose":2773,"ĠReturns":2774,"PER":2775,"PIO":2776,"LL":2777,"ĠHT":2778,"tract":2779,"DEV":2780,"Ġtag":2781,"ICE":2782,"Num":2783,"MASK":2784,"ches":2785,"can":2786,"\",\"":2787,"Ġserver":2788,"go":2789,"Ġspecified":2790,"Mod":2791,"Ġorder":2792,"CF":2793,"_.":2794,"Ġ15":2795,":\"":2796,"NULL":2797,"cy":2798,"lan":2799,"Ġexp":2800,"Types":2801,")->":2802,"otal":2803,"center":2804,"ĠTO":2805,"45":2806,"exp":2807,"ARE":2808,"Last":2809,"([":2810,"mail":2811,"CHE":2812,"Ġcolumn":2813,"ICENSE":2814,"Ġtask":2815,"xFF":2816,"MODE":2817,"padding":2818,"Container":2819,"EXT":2820,"65":2821,"limit":2822,"Ġquery":2823,"LOG":2824,"Case":2825,"very":2826,"Ġ('":2827,"[$":2828,"DIR":2829,"ĠFOR":2830,"iginal":2831,"Do":2832,"mote":2833,"Ġload":2834,"gl":2835,"Ġsee":2836,"coded":2837,"pm":2838,"ABILITY":2839,"IND":2840,"Vis":2841,"ĠFoundation":2842,"DEBUG":2843,"ĠMA":2844,"Ġ::":2845,"pth":2846,"ĠFor":2847,"gen":2848,"support":2849,"delete":2850,"ecute":2851,"boot":2852,"Header":2853,"Ab":2854,"Unit":2855,"background":2856,"Write":2857,"Ġfail":2858,"Module":2859,"Ġfind":2860,"FILE":2861,"{{":2862,"Ġthere":2863,"Ġflags":2864,"board":2865,"Ġentry":2866,"Level":2867,"Ġform":2868,"Ġspecific":2869,"ailable":2870,"vector":2871,"ceived":2872,"ĠSh":2873,"CONFIG":2874,"unit":2875,"Widget":2876,"extern":2877,"other":2878,"ĠAn":2879,"pg":2880,"Offset":2881,"MENT":2882,"Det":2883,"Ġcache":2884,"AY":2885,"Ġ~":2886,"service":2887,"curity":2888,"files":2889,"ĠWe":2890,"Sto":2891,"only":2892,"Ġ|=":2893,"ique":2894,"ACE":2895,"ulti":2896,"Ġdate":2897,"QU":2898,"channel":2899,"ĠAPI":2900,"hw":2901,"cus":2902,"'))":2903,"Ġnon":2904,"settings":2905,"vol":2906,"Entity":2907,"WR":2908,"69":2909,"Ġref":2910,"ĠĠĠĠĠĠĠĠĠĠĠĠĠĠ":2911,"images":2912,"Ġexpected":2913,"Ġeach":2914,"media":2915,"lap":2916,"Ġits":2917,"classes":2918,"ĠType":2919,"radius":2920,"az":2921,"second":2922,"Controller":2923,"ĠFree":2924,"ove":2925,"=\"/":2926,"68":2927,"čĊĠĠĠĠĠĠĠĠĠĠĠĠĠĠĠĠĠĠĠ":2928,"Height":2929,"Ġra":2930,"long":2931,"*)":2932,"Range":2933,"cent":2934,"ump":2935,"token":2936,"INFO":2937,"Ġchild":2938,"ward":2939,"Ġexcept":2940,"LOCK":2941,"KEY":2942,"ĠST":2943,"Web":2944,"ĠRes":2945,"loud":2946,"Ġrow":2947,"full":2948,"lit":2949,"interface":2950,"Handle":2951,"imum":2952,"Utils":2953,"Ġregister":2954,"replace":2955,"Ø§":2956,"Font":2957,"semb":2958,"bb":2959,"small":2960,"stat":2961,"âĢ":2962,"Ġempty":2963,"Provider":2964,"cap":2965,"Ac":2966,"(!":2967,"Ġap":2968,"Ġcell":2969,"PAR":2970,"Ġ['":2971,"SB":2972,"ivity":2973,"acity":2974,"Ġaccess":2975,"Ġsame":2976,"ole":2977,"Ġpermission":2978,"final":2979,"ization":2980,"project":2981,"ASS":2982,"Ġold":2983,"auth":2984,"insert":2985,"amily":2986,"sql":2987,"expected":2988,"Ġwhere":2989,"DATA":2990,"auto":2991,"ixel":2992,"čĊĉĉĉĉ":2993,"Ġ\"%":2994,"70":2995,"ĠSer":2996,"Ġrg":2997,"values":2998,"sl":2999,"sec":3000,"Min":3001,"Back":3002,"Connection":3003,"ROM":3004,"Ġ32":3005,"ines":3006,"oss":3007,"now":3008,"Empty":3009,"Dis":3010,"margin":3011,"ten":3012,"æľ":3013,"ĊĊĠĠ":3014,"Vector":3015,"irection":3016,"cr":3017,"stamp":3018,"etch":3019,"focus":3020,"Settings":3021,"asic":3022,"ĠAll":3023,"Co":3024,"Net":3025,"cpp":3026,"thread":3027,"Ġbyte":3028,"ian":3029,"sv":3030,"save":3031,"cm":3032,"Ġsuper":3033,"Ġhere":3034,"Dir":3035,"Pan":3036,"umb":3037,"Ġvirtual":3038,"Fe":3039,"Ġlanguage":3040,"important":3041,"IE":3042,"ĠAND":3043,"Ġopt":3044,"Session":3045,"ĊĠĠĠĠĠĠĠĠĠĠĠĠĠĠĠĠĠĠĠĠĠ":3046,"Ġtemplate":3047,"ene":3048,"Ġnow":3049,"Ġroot":3050,"58":3051,"herit":3052,"strap":3053,"component":3054,"vious":3055,"cat":3056,"ĠEn":3057,"Access":3058,"Ġind":3059,"Ġvis":3060,">>":3061,"åĪ":3062,"render":3063,"ãĢĤ":3064,"MI":3065,"FE":3066,"Ġtmp":3067,"Process":3068,"Params":3069,"uction":3070,"None":3071,"begin":3072,"ĠVersion":3073,"Parameter":3074,"prec":3075,"Ġopen":3076,"Run":3077,"Ġbeen":3078,"Ġlevel":3079,"Next":3080,"rate":3081,"Ġbytes":3082,"SER":3083,"Ġpos":3084,"unlock":3085,"clk":3086,"ĠCheck":3087,"orld":3088,"ination":3089,"switch":3090,"wn":3091,"lg":3092,"disabled":3093,"Current":3094,"Que":3095,"hs":3096,"imation":3097,"itional":3098,"ĊĠĠĠĠĠĠĠĠĠĠĠĠĠĠĠĠĠĠĠĠ":3099,"pa":3100,"range":3101,"ier":3102,"cfg":3103,"Hash":3104,"click":3105,"Callback":3106,"Ġparameter":3107,"NavBar":3108,"Ġvariable":3109,"PT":3110,"Ġreturns":3111,"rx":3112,"AV":3113,"Ġstream":3114,"roy":3115,"ces":3116,"Ġterms":3117,"Ġparams":3118,"Ġshow":3119,"ĠData":3120,"First":3121,"aj":3122,"sys":3123,"Device":3124,"=\"../../../../../":3125,"Ġheader":3126,"alt":3127,"Top":3128,"used":3129,"Ġfe":3130,"FR":3131,"aded":3132,"coding":3133,"Ġsend":3134,"Ġswitch":3135,"pename":3136,"inline":3137,"mutex":3138,"pol":3139,"Open":3140,"oci":3141,"ĠCol":3142,"Ġbuild":3143,"CA":3144,"=\"-":3145,"FS":3146,"ĠBG":3147,"Ġsearch":3148,"join":3149,"XT":3150,"(\"%":3151,"Ġdetails":3152,"fields":3153,"Document":3154,"INVAL":3155,"sert":3156,"46":3157,"transform":3158,"Ġinternal":3159,"global":3160,"Ċĉĉĉĉĉĉĉĉ":3161,"Ġtemp":3162,"scale":3163,"READ":3164,"comment":3165,"TIES":3166,"Option":3167,"Ġremove":3168,"acter":3169,"scope":3170,"sb":3171,"ALSE":3172,"Ġ'/":3173,"Ġfailed":3174,"ring":3175,"DL":3176,"SION":3177,"AA":3178,"Ġthan":3179,"Ġpri":3180,"book":3181,"pk":3182,"90":3183,"äº":3184,"Thread":3185,"posit":3186,"à¸":3187,"Ġmsg":3188,"types":3189,"should":3190,"OST":3191,"Tool":3192,"ging":3193,"xf":3194,"802":3195,"`,":3196,"toggle":3197,"admin":3198,"mount":3199,"sort":3200,"aml":3201,"Ġstore":3202,"TEST":3203,"Ġoverride":3204,"Load":3205,"ĠPar":3206,"Record":3207,"Core":3208,".\"":3209,"lice":3210,"igation":3211,"UD":3212,"ĠBu":3213,"Ġmodify":3214,"allet":3215,"Call":3216,"ITION":3217,"Ġhost":3218,"OD":3219,"afe":3220,"met":3221,"57":3222,"UID":3223,"Ġsystem":3224,"čĊčĊĠĠĠĠĠĠĠ":3225,"mov":3226,"ĠÃ":3227,"boolean":3228,"ĠAs":3229,"peed":3230,"->_":3231,"Location":3232,"43":3233,"98":3234,"ĠAR":3235,"iron":3236,"Ġparse":3237,"enable":3238,"Configuration":3239,"Ġbuf":3240,"${":3241,"su":3242,"erson":3243,"ped":3244,"ublished":3245,"lyph":3246,"ATH":3247,"access":3248,"weight":3249,"member":3250,"42":3251,"skb":3252,"Ġsession":3253,"Ġhash":3254,"BIT":3255,"Ġdelete":3256,"Iter":3257,"aster":3258,"Ġconn":3259,"pop":3260,"footer":3261,"Ð°Ð":3262,"Ġsolid":3263,"ely":3264,"ACT":3265,"GR":3266,"Ġcorre":3267,"VENT":3268,"OM":3269,"pha":3270,"ĠAp":3271,"velo":3272,"connect":3273,"WN":3274,"USE":3275,"stack":3276,"make":3277,"():":3278,"anch":3279,"67":3280,"inary":3281,"ignore":3282,"ĠWARRANTIES":3283,"UES":3284,"Template":3285,"rupt":3286,"edit":3287,"ndef":3288,"stop":3289,"ĠLO":3290,"ason":3291,"echo":3292,"Ġalready":3293,"MOD":3294,"system":3295,"TIME":3296,"SU":3297,"Ġdest":3298,"items":3299,"3333":3300,"ERN":3301,"Render":3302,"custom":3303,"Ġcalled":3304,"ipe":3305,"straint":3306,"Bundle":3307,"áĢ":3308,"ĠClass":3309,"Store":3310,"ĊĠĠĠĠĠĠĠĠĠĠĠĠĠĠĠĠĠĠ":3311,"~~":3312,"Ġcontain":3313,"sn":3314,"Param":3315,"brary":3316,"example":3317,"////////////////////////////////":3318,"bus":3319,"INSERT":3320,"Op":3321,"Ġqu":3322,"ĊĊĉĉĉ":3323,"arm":3324,"tn":3325,"!<":3326,"aph":3327,"ĠCom":3328,"thon":3329,"ĠAl":3330,"ted":3331,"returns":3332,"ifndef":3333,"foo":3334,"ernel":3335,"wise":3336,"Ġ\"/":3337,"ĠBGCOLOR":3338,"reset":3339,"actor":3340,"255":3341,"typedef":3342,"OB":3343,"bytes":3344,"callback":3345,"ĠLe":3346,"ĠAL":3347,"Ġproject":3348,"Helper":3349,"Left":3350,"Port":3351,"____":3352,"Http":3353,";<":3354,"cla":3355,"Ġavailable":3356,"Ġpost":3357,"Ġnamespace":3358,"Ġ255":3359,"ialized":3360,"Ġren":3361,"Order":3362,"Ġreference":3363,"Ġeven":3364,"Ġgo":3365,"LEN":3366,"Ġph":3367,"''":3368,"Local":3369,"Ġos":3370,"Dialog":3371,"tk":3372,"struction":3373,"ynam":3374,"çĶ":3375,"icro":3376,"tocol":3377,"Ġcl":3378,"Ġrgba":3379,"inner":3380,"SL":3381,"cul":3382,"ĠName":3383,"ĠPy":3384,"Ġconnection":3385,"###":3386,"_;":3387,"ĠOn":3388,"MEM":3389,"cmp":3390,"domain":3391,"ĠException":3392,"STATUS":3393,"Ph":3394,"Ġsuccess":3395,"place":3396,"Ġgr":3397,"ĠTR":3398,"Ġservice":3399,"dropdown":3400,"Ġcondition":3401,"uk":3402,"ĠIO":3403,"=\"../../../../../../":3404,"ĠTrue":3405,"å®":3406,"ĠINTO":3407,"toString":3408,"....":3409,"ĠCONFIG":3410,"Reference":3411,"pository":3412,"Ġnav":3413,"IGHT":3414,"_,":3415,"gment":3416,"=\"_":3417,"(__":3418,"ĊĉĉĊĉ":3419,"equals":3420,"Ġparameters":3421,"cell":3422,"rq":3423,"Ġ\",":3424,"oost":3425,"theme":3426,"txt":3427,"ĠLog":3428,")/":3429,"oom":3430,"Ġcomponent":3431,"BE":3432,"xa":3433,"CS":3434,"ctrl":3435,"NS":3436,"Ġrender":3437,"sing":3438,"72":3439,"gp":3440,"åħ":3441,"ĊĠĠĠĠĠĠĠĠĊĠĠĠĠĠĠĠ":3442,"split":3443,"ĠApache":3444,"Stack":3445,"iction":3446,"leted":3447,"ĠIt":3448,"grid":3449,"shadow":3450,"Description":3451,"Ġlicense":3452,"Byte":3453,"Ġiter":3454,"ctl":3455,"ĠAssert":3456,"ĠApp":3457,"ynt":3458,"distr":3459,"ĠReg":3460,"ween":3461,"Ġdev":3462,"ade":3463,"xc":3464,".'":3465,"site":3466,"Ġpass":3467,"Ġalso":3468,"area":3469,"CD":3470,"fb":3471,"verse":3472,"HER":3473,"Ġbet":3474,"ds":3475,"atures":3476,"xE":3477,"Ġdefine":3478,"Ġexist":3479,"REQ":3480,"gest":3481,"Properties":3482,"Draw":3483,"Ġattribute":3484,"Match":3485,"ugh":3486,"Rect":3487,"sembly":3488,"modal":3489,"\"},":3490,"ution":3491,"ancel":3492,"after":3493,"Ġwant":3494,"Parameters":3495,"NOT":3496,"Ġcontinue":3497,"NESS":3498,"flag":3499,"RT":3500,"SM":3501,"Parser":3502,"bits":3503,"iod":3504,"(-":3505,"success":3506,"ado":3507,"btain":3508,"ULAR":3509,"uc":3510,"angle":3511,"ĠDo":3512,"ibility":3513,"YPE":3514,"Impl":3515,"Integer":3516,"Ġem":3517,"xff":3518,"help":3519,"(:":3520,"Ġthread":3521,"Ġty":3522,"Ġjav":3523,"gra":3524,"POSE":3525,"Ġ'<":3526,".*":3527,"coun":3528,"internal":3529,"iteral":3530,"andard":3531,"If":3532,"Ġpointer":3533,"Ġdon":3534,"mg":3535,"ĠInc":3536,"Ġver":3537,"Title":3538,"ĠPART":3539,"************************************************************************":3540,"hd":3541,"åĲ":3542,"ings":3543,"Ġrc":3544,"ĠVALUES":3545,"imal":3546,"Ġreceived":3547,"handler":3548,"soft":3549,"Enum":3550,"Ġalt":3551,"tip":3552,"distribut":3553,"Sk":3554,"CESS":3555,"TX":3556,"ä½":3557,"none":3558,"False":3559,"Ġtree":3560,"attribute":3561,"Ġtoken":3562,"160":3563,"NT":3564,">.":3565,"DIS":3566,"ĠDef":3567,"CHANT":3568,"filename":3569,"driver":3570,"Ġobtain":3571,"47":3572,"graph":3573,"Ġfields":3574,"Ġmain":3575,"URPOSE":3576,"ĊĉĉĠĠĠ":3577,"Invalid":3578,"Channel":3579,"solute":3580,"Ġmemory":3581,"aders":3582,"step":3583,"dat":3584,"Ġjust":3585,"xF":3586,"ĠUp":3587,"ensions":3588,"Obj":3589,"Work":3590,"Ġchannel":3591,"ĊĉĠĠĠĠĠ":3592,"ITNESS":3593,"MT":3594,")),":3595,"Ġsecond":3596,"coder":3597,"ĠPRO":3598,"Ag":3599,"Over":3600,"Click":3601,"ideo":3602,"ADD":3603,"ERCHANT":3604,"TABLE":3605,"Down":3606,"rough":3607,"FUN":3608,"ARY":3609,"bootstrap":3610,"stats":3611,"utf":3612,"80211":3613,"vas":3614,"edia":3615,"ĠPURPOSE":3616,"ERCHANTABILITY":3617,"{\"":3618,"rief":3619,"Ġ],":3620,"Constant":3621,"ICULAR":3622,"Ġlater":3623,"85":3624,"iag":3625,"Rule":3626,"mac":3627,"Tab":3628,"day":3629,"ias":3630,"Ġenv":3631,"ĠDate":3632,"Ġcontrol":3633,"total":3634,"Host":3635,"ĠPARTICULAR":3636,"each":3637,"wp":3638,"fl":3639,"Ġarguments":3640,"95":3641,"Ġ'\\":3642,"xb":3643,"uple":3644,"Ġ50":3645,"product":3646,"Ġdone":3647,"oth":3648,"ential":3649,"Ġdirectory":3650,"Float":3651,"Ġent":3652,"ĊĠĠĠĠĠĠĠĠĠĠĠĠĠĠĠĠĠĠĠĠĠĠĠĠĠĠĠĠĠĠĠĠĠĠĠĠĠĠĠĠĠĠĠ":3653,"spin":3654,"lative":3655,"igin":3656,"ECT":3657,"Cre":3658,"ĠFITNESS":3659,"}\\":3660,"è¿":3661,"ynamic":3662,"Ġ...":3663,"Ġreser":3664,"ĠNO":3665,"Player":3666,"oriz":3667,"hether":3668,"=\"../../../":3669,"entic":3670,"bed":3671,"Edit":3672,"Enabled":3673,"96":3674,"Ġman":3675,"\".":3676,"ĠĠĠĠĠĠĠĠĠĠĠĠĠĠĠĠĠĠĠ":3677,"Ã¡":3678,"seq":3679,"record":3680,"PECT":3681,"cause":3682,"TRY":3683,"dated":3684,"ln":3685,"Ġfull":3686,")));":3687,"region":3688,"skip":3689,"ragment":3690,"æĸ":3691,"ĠTo":3692,"xe":3693,"Ġrecord":3694,"ony":3695,"PUT":3696,"Ġinstall":3697,"ultiple":3698,"256":3699,"PS":3700,"'])":3701,"License":3702,"arn":3703,"0000000":3704,"Ġdb":3705,"istory":3706,"84":3707,"(){":3708,"ĊĊĊ":3709,"STATE":3710,"keys":3711,"family":3712,"ision":3713,"ĠValue":3714,"BASE":3715,"brief":3716,"BR":3717,"Use":3718,"kind":3719,"IDE":3720,"Ġhtml":3721,"Display":3722,"ĠMERCHANTABILITY":3723,"LOC":3724,"del":3725,"Sign":3726,"Parent":3727,"cv":3728,"Cal":3729,"bers":3730,"Ġglobal":3731,"Graph":3732,"Ġexample":3733,"iterator":3734,"UM":3735,"ĊĠĠĠĠĠĠĠĠĠĠĠĠĠĠĠĠĠĠĠĠĠĠĠĠĠĠĠĠĠĠĠĠĠĠĠĠĠĠĠĠĠĠĠĠĠĠĠĠĠĠĠĠĠĠĠĠ":3736,"TA":3737,"trib":3738,"era":3739,"Wh":3740,"Ġgl":3741,"inode":3742,"Expression":3743,">();":3744,"ĠError":3745,"=%":3746,"Right":3747,"ironment":3748,"luster":3749,"lash":3750,"engine":3751,"THER":3752,"Names":3753,"Ġ11":3754,"HTML":3755,"Ġprovided":3756,"82":3757,"Ġbutton":3758,"dict":3759,"atom":3760,",-":3761,"ii":3762,")]":3763,"TW":3764,"Ġmark":3765,"ead":3766,"Auth":3767,"Ġconfiguration":3768,"licit":3769,"Ġuseful":3770,"report":3771,"Ġenum":3772,"hr":3773,"LECT":3774,"Ġagre":3775,"finition":3776,"ws":3777,"Bytes":3778,"Exp":3779,"prefix":3780,"high":3781,"lide":3782,"Values":3783,"irm":3784,"Rout":3785,"draw":3786,"Ġ/*!<":3787,"hidden":3788,"ĊĊĠĠĠĠĠĠĠĠĠĠĠĠĠĠĠĠĠĠĠ":3789,"category":3790,"ĠInit":3791,"Ġtransp":3792,"LICENSE":3793,"LINE":3794,"ries":3795,"Reader":3796,"Ġ14":3797,"je":3798,"ways":3799,"Ġlock":3800,"codec":3801,"known":3802,"Ġundefined":3803,"SCR":3804,"med":3805,"\">&":3806,"dst":3807,"Ġresults":3808,"uri":3809,"home":3810,"Ġscope":3811,"Ġbox":3812,"-->":3813,"COMP":3814,"ority":3815,"52":3816,"moz":3817,"?:":3818,"fp":3819,"Ġbody":3820,"Ġcpu":3821,"Ġapplic":3822,"istry":3823,"sect":3824,"istance":3825,"VERSION":3826,"Debug":3827,"icons":3828,"IX":3829,"Ġexpress":3830,"DATE":3831,"PP":3832,"uff":3833,"hel":3834,"olve":3835,"Json":3836,"Ġcmd":3837,"Ġsm":3838,"Args":3839,"87":3840,"Ġrights":3841,"exports":3842,"prev":3843,"ending":3844,"short":3845,"Ð»":3846,"Project":3847,"Ñĥ":3848,"precated":3849,"Ġ})":3850,"ids":3851,"ĠFalse":3852,"impl":3853,"Ġexception":3854,"serv":3855,"ĠNew":3856,"password":3857,"Ġmat":3858,"Mon":3859,"------------":3860,"iant":3861,"olume":3862,"__(":3863,"np":3864,"FFFF":3865,"exit":3866,"Ġclear":3867,"OFF":3868,"selected":3869,"LAN":3870,"53":3871,"Package":3872,"Ġ%}":3873,"achine":3874,"player":3875,"bove":3876,"ayload":3877,"\"\"\"":3878,"ram":3879,"adient":3880,"Ġsettings":3881,"ah":3882,"rad":3883,"EQ":3884,"ilt":3885,"Ġpermissions":3886,"ĠĊĠĠĠ":3887,"sync":3888,"Ġcustom":3889,"ounter":3890,"ged":3891,"Ġelements":3892,"Ġgover":3893,"dc":3894,"Ġnormal":3895,"hedule":3896,"Track":3897,"lack":3898,"RX":3899,"Ġpackage":3900,"\"],":3901,"Ġjson":3902,"Ġtransaction":3903,"ĠMath":3904,"Bit":3905,"ĠNo":3906,"PU":3907,"Py":3908,"'];":3909,"Ġwriting":3910,"Cur":3911,"Msg":3912,"Ġvalign":3913,"Ġdif":3914,"ĠWARRANTY":3915,"Ġfore":3916,"HERE":3917,"rule":3918,"IST":3919,"Changed":3920,"orizont":3921,"Ġcontainer":3922,"connection":3923,"Delete":3924,"Ġpublished":3925,"ĠHTML":3926,"fail":3927,"Ġrepresent":3928,"DF":3929,"CHECK":3930,"ĠMap":3931,"atal":3932,"Body":3933,"PM":3934,"Storage":3935,"Are":3936,"crypt":3937,"Ġtypes":3938,"97":3939,"EM":3940,"while":3941,"ULE":3942,"fix":3943,"ĠKIND":3944,"CMD":3945,"ailed":3946,"Detail":3947,"rm":3948,"__,":3949,"ocket":3950,"TEXT":3951,"Ġlocation":3952,"LAY":3953,"just":3954,"Ġreserved":3955,"xs":3956,"Ġbecause":3957,"CB":3958,"Encoded":3959,"Ġabove":3960,"======":3961,"čĊĉĉĉĉĉ":3962,"MIN":3963,"docs":3964,"sample":3965,"ev":3966,"Panel":3967,"Send":3968,"scribe":3969,"41":3970,"Flags":3971,"Plugin":3972,"endar":3973,"yntax":3974,"Operation":3975,"æĺ":3976,"dp":3977,"Ġreturned":3978,"Assert":3979,"install":3980,"Ġhttps":3981,"Print":3982,"inition":3983,"term":3984,"framework":3985,"zone":3986,"'.":3987,"ĠTH":3988,"Ġdirect":3989,"ced":3990,"IZE":3991,"Ġtwo":3992,"white":3993,"Ġss":3994,"orizontal":3995,"tw":3996,"Ġet":3997,"ENABLE":3998,"Ġthem":3999,"ĠNot":4000,"modules":4001,"icker":4002,"Ġreq":4003,"Ġcenter":4004,"Meta":4005,"Ġdiv":4006,"Ġdir":4007,"exception":4008,"liance":4009,"ounds":4010,"FORM":4011,"Queue":4012,"ĠTrans":4013,"yy":4014,"Ġmet":4015,"čĊĠĠ":4016,"Ġ(_":4017,"Ġoperation":4018,"article":4019,"Symbol":4020,"loy":4021,"Show":4022,";}":4023,"CLK":4024,"timer":4025,"`.":4026,"shot":4027,"cip":4028,"ersist":4029,"peat":4030,"ĊĠĠĠĠĠĠĠĠĠĠĠĠĠĠĠĠĠĠĠĠĠĠĠĠĠ":4031,"Pri":4032,"vision":4033,"bs":4034,"cpy":4035,",'":4036,"Ġjavax":4037,"ended":4038,"ummary":4039,"128":4040,"Classes":4041,"1000":4042,"Ġalloc":4043,"SQL":4044,"Ġhandler":4045,"IV":4046,"å¤":4047,"ĠWh":4048,"mc":4049,"Ġdown":4050,"Root":4051,"Ġwait":4052,"non":4053,"primary":4054,"lower":4055,"xis":4056,"ĠIP":4057,"keyword":4058,"Ġ24":4059,"CTL":4060,"Writer":4061,"Ġshort":4062,"Lock":4063,"WE":4064,"bd":4065,"Ġ[\"":4066,"Ġ\"\"":4067,"ators":4068,"ous":4069,"Long":4070,"freq":4071,"IPT":4072,"REE":4073,"æķ":4074,"play":4075,"Ġandroid":4076,"ĠEXPECT":4077,"rem":4078,"Ċĉĉĉĉĉĉĉĉĉ":4079,"ĊĠĠĠĠĠĠĠĠĠĠĠĠĊĠĠĠĠĠĠĠĠĠĠĠĠĠĠĠ":4080,"done":4081,"Ġ18":4082,"IVE":4083,"Has":4084,"Grid":4085,"{}":4086,"blockList":4087,"ertex":4088,"Ġca":4089,"sr":4090,"hide":4091,"timeout":4092,"è¯":4093,"Definition":4094,"ĠOpen":4095,"MAP":4096,"MSG":4097,"Descript":4098,"screen":4099,"_(":4100,"valu":4101,"Xml":4102,"coq":4103,"Ġdescription":4104,"prop":4105,"Conn":4106,"mar":4107,"Ġthey":4108,"fg":4109,"Ġspace":4110,"Ġfin":4111,"dialog":4112,"Ġctx":4113,"Argument":4114,"distribute":4115,"ĠUser":4116,"gex":4117,"73":4118,"buff":4119,"hdr":4120,"Ġword":4121,"leep":4122,"Ġtotal":4123,"release":4124,"ents":4125,"Us":4126,"ispatch":4127,"ope":4128,"Ġlook":4129,"Ġdoc":4130,"Matrix":4131,"51":4132,"Ġqueue":4133,"writ":4134,"Ġcreated":4135,"events":4136,"dim":4137,"PATH":4138,"Ã£":4139,"Ġinteger":4140,"track":4141,"Kind":4142,"Items":4143,"DITION":4144,"Application":4145,"alk":4146,"Ġexit":4147,"ATTR":4148,"izer":4149,"holder":4150,"pipe":4151,"Variable":4152,"Ġlike":4153,"ĠUse":4154,"Ġscript":4155,"Ġdatabase":4156,"Ġstack":4157,"Ġpacket":4158,"amera":4159,"arge":4160,"Ġ30":4161,"ometry":4162,"Ġ{'":4163,"OPT":4164,"IFT":4165,"Ge":4166,"POST":4167,"Ġrule":4168,"CTRL":4169,"RES":4170,"acing":4171,"abs":4172,"83":4173,"Ġplace":4174,"Active":4175,"names":4176,"application":4177,"ĠLicensed":4178,"Ġpas":4179,"=\"\">":4180,"Ġnames":4181,"hav":4182,"android":4183,"Ġlibrary":4184,"DEF":4185,"']['":4186,"ializer":4187,"win":4188,"Ġabout":4189,"utom":4190,"Metadata":4191,"Ġpe":4192,"ById":4193,")*":4194,"Ġ{\"":4195,"Custom":4196,"xd":4197,"Ġng":4198,"Boolean":4199,"ĠIs":4200,"xB":4201,"ARG":4202,"Ġflag":4203,"Ġexecut":4204,"Ġio":4205,"Doc":4206,"Bind":4207,"Man":4208,"warning":4209,"TL":4210,"[:":4211,"Windows":4212,"ĠĠĠĠĠĠĠĠĠĠĠĠĠĠĠĠĠ":4213,"MAGE":4214,"Ġargument":4215,"63":4216,"ĠSH":4217,"Async":4218,"94":4219,"Ġtx":4220,"Schema":4221,"Ġscale":4222,"Ġinstanceof":4223,"Ġattr":4224,"Ġredistribute":4225,".__":4226,"lapse":4227,"gor":4228,"FLAGS":4229,"ĊĊĠĠĠĠ":4230,"pool":4231,"shape":4232,"ĠFALSE":4233,"LOW":4234,"ĠURL":4235,"clar":4236,"glyph":4237,"()));":4238,"æĪ":4239,"ELD":4240,"protected":4241,"jo":4242,"CM":4243,"vec":4244,"ĠJSON":4245,"Ġì":4246,"Ġplugin":4247,"TED":4248,"Ġapplicable":4249,"upp":4250,"vb":4251,"Ġcopyright":4252,"Ġexport":4253,"ĠInt":4254,"packet":4255,"scroll":4256,"Ġloc":4257,"Ġxml":4258,"Ġ'',":4259,"uter":4260,"Ġelem":4261,"allow":4262,"Ġitems":4263,"ĠInter":4264,"clean":4265,"Ġfn":4266,"Mock":4267,"ories":4268,"arrant":4269,"Ġfunctions":4270,"direct":4271,"čĊčĊĉ":4272,"čĊĠĠĠĠĠĠĠĠĠĠĠĠĠĠĠĠĠĠĠĠĠĠĠ":4273,"Api":4274,"job":4275,"ILE":4276,"wrap":4277,"bg":4278,"aly":4279,"cor":4280,"Ver":4281,"TC":4282,"VM":4283,"Ġfunc":4284,"JSON":4285,"sizeof":4286,"Ġthrough":4287,"fff":4288,"ĠEvent":4289,"models":4290,"92":4291,"ĠConfig":4292,"tl":4293,"ĠCO":4294,"OBJ":4295,"ordin":4296,"BY":4297,"Mark":4298,">::":4299,"apture":4300,"ĠTODO":4301,"ĠassertEquals":4302,"Ġwarrant":4303,"UX":4304,"ENTRY":4305,"Layer":4306,"dma":4307,"Ġ\"<":4308,"Ġactive":4309,"Ġsingle":4310,"fx":4311,"Ġalong":4312,"adapter":4313,"CRE":4314,"Ġ.=":4315,"Ã¤":4316,"jquery":4317,"SELECT":4318,"Ðº":4319,"Ġul":4320,"62":4321,"Copy":4322,"Ġdebug":4323,"Ġapplication":4324,"apped":4325,"eq":4326,"rb":4327,"Ġip":4328,"uture":4329,"Ġ13":4330,"ĠUSB":4331,"Ġbtn":4332,"Ġselected":4333,"chron":4334,"6666":4335,"WAR":4336,"ibr":4337,"scal":4338,"DEFAULT":4339,"Ġenable":4340,"]]":4341,"Ġsort":4342,"account":4343,"GB":4344,"Timeout":4345,"çĶ¨":4346,"Ġvector":4347,"Ġcompliance":4348,"pag":4349,"91":4350,"car":4351,"cnt":4352,"61":4353,"trigger":4354,"plit":4355,"platform":4356,"Ġassoci":4357,"ĊĠĠĊĠ":4358,"assets":4359,"au":4360,"Adapter":4361,"ĠTime":4362,"ĠFunction":4363,"Transaction":4364,"ĠCONDITION":4365,"ĠDefault":4366,"moved":4367,"erm":4368,"Ġ-=":4369,"fill":4370,"Ġmon":4371,"ossible":4372,"disable":4373,"Ġ$_":4374,"legate":4375,"Ġignore":4376,"Iterator":4377,"Ġhope":4378,"Ġinitial":4379,".\\":4380,"Sw":4381,"Ġwhether":4382,"Ġwarranty":4383,"00000":4384,"video":4385,"language":4386,"Ġ\"$":4387,"typeof":4388,"DA":4389,"We":4390,"wner":4391,"ĠBAS":4392,"Ġgoto":4393,"VALUE":4394,"enabled":4395,"trace":4396,"Scope":4397,"Can":4398,"Ġ[];":4399,"à¥":4400,"master":4401,"uby":4402,"Ġ\"-":4403,"pages":4404,"ability":4405,"DT":4406,"ĠSc":4407,"normal":4408,"ADDR":4409,"manager":4410,"setup":4411,"]:":4412,"\\/":4413,"ues":4414,"]=":4415,"Ġcontains":4416,"Ġgoverning":4417,"xffff":4418,"ĠSIZE":4419,"apply":4420,"NavBarCell":4421,"ÃŃ":4422,"Ġsection":4423,"Ã³":4424,"ferent":4425,"ĠFROM":4426,"IMIT":4427,"cloud":4428,"rel":4429,"ĠAS":4430,"Report":4431,"ĠQString":4432,"Ass":4433,"real":4434,"assertEqual":4435,"erge":4436,"DEVICE":4437,"blank":4438,"network":4439,"DER":4440,"Ġ}}":4441,"åĬ":4442,"ĠBASIS":4443,"ĠCONDITIONS":4444,"Ġproperties":4445,"tags":4446,"aved":4447,"profile":4448,"SHIFT":4449,"exists":4450,"Ġtrack":4451,"Fields":4452,"Ġbetween":4453,"Ġobjects":4454,"Ġmask":4455,"'));":4456,"è®":4457,"tach":4458,"Descriptor":4459,"Inst":4460,".,":4461,"chip":4462,"Rep":4463,"parser":4464,"GPIO":4465,"fmt":4466,"protobuf":4467,"?>":4468,"Ġ25":4469,"CFG":4470,"login":4471,"assign":4472,"ua":4473,"WORD":4474,"wrapper":4475,"My":4476,"numer":4477,"Rel":4478,"FT":4479,"Ġrole":4480,"super":4481,"Ġlaw":4482,"getName":4483,"assertEquals":4484,"Ġthese":4485,"getElement":4486,"One":4487,"Ġ{};":4488,"Ġinvalid":4489,"Job":4490,"ceive":4491,"power":4492,"71":4493,"iddle":4494,"Ġpy":4495,"ĠLI":4496,"Ġevents":4497,"parator":4498,"Env":4499,"ORY":4500,"CHAR":4501,"ĠNode":4502,"Ġ${":4503,"Ġforeach":4504,"urren":4505,"Ġsure":4506,"cer":4507,"lug":4508,"Ġraise":4509,"gorith":4510,"INIT":4511,"Ġparam":4512,"Struct":4513,"ĊĠĠĠĠĠĠĠĠĠĠĠĠĠĠĠĠĠĠĠĠĠĠ":4514,"ĠWHERE":4515,"OFTW":4516,"Ġour":4517,"OFTWARE":4518,"Ġstep":4519,"Ġlimitations":4520,"delay":4521,"ze":4522,"xA":4523,"bc":4524,"controller":4525,"Ġprob":4526,"Ġconf":4527,"tabs":4528,"****************************************************************************":4529,"dia":4530,"AUT":4531,"ĠBO":4532,"DS":4533,"ĠAd":4534,"ĠQu":4535,"ĠWeb":4536,"Ġbl":4537,"Close":4538,"trie":4539,"FL":4540,"Ġaddr":4541,"dom":4542,"Global":4543,"letion":4544,"ĠRed":4545,"ired":4546,"aterial":4547,"Ġcons":4548,"ĠMAX":4549,"Non":4550,"Tests":4551,"ĊĊĊĠĠĠ":4552,"Domain":4553,"pass":4554,"Ġconditions":4555,"Ġmethods":4556,"Ġge":4557,"wr":4558,"expr":4559,"RC":4560,"Err":4561,"throws":4562,"isset":4563,"Only":4564,"LIN":4565,"havi":4566,"Editor":4567,"ĠALIGN":4568,"93":4569,"plan":4570,"ĠUpdate":4571,"Ġoriginal":4572,"Ġweb":4573,"EC":4574,"nap":4575,"Ġagreed":4576,"Ġrelative":4577,"KERN":4578,"bad":4579,"ircle":4580,"IDTH":4581,"scriptor":4582,"Ġbeing":4583,"ä¸Ģ":4584,"MC":4585,"keep":4586,"ross":4587,"HEAD":4588,"ynchron":4589,"%%%%":4590,"Ġte":4591,"ĠĠĠĠĠĠĠĠĠĠĠĠĠĠĠĠĠĠ":4592,"ga":4593,"Account":4594,"proc":4595,"sig":4596,"points":4597,"Ġreset":4598,"editor":4599,"symbol":4600,"Ne":4601,"åľ":4602,"Policy":4603,"ĠEnd":4604,"Logger":4605,"greg":4606,"Ġ\"\",":4607,"gh":4608,"SCRIPT":4609,"Ġown":4610,"ĠTRUE":4611,"EINVAL":4612,"Support":4613,"Failed":4614,"alled":4615,"Files":4616,"chan":4617,"Register":4618,"plugins":4619,"Remove":4620,"math":4621,"Ġprevious":4622,"Func":4623,"Ġkeys":4624,"ango":4625,"Parse":4626,"81":4627,"hell":4628,"tric":4629,"Ġequal":4630,"Success":4631,"results":4632,"MODULE":4633,"Len":4634,"ĠĊĉ":4635,"Ġconsole":4636,"XML":4637,"Ġdel":4638,"={":4639,"FIL":4640,"mock":4641,"čĊĠĠĠĠĠĠĠĠ":4642,"Auto":4643,"tbody":4644,"SUP":4645,"Post":4646,"Ġui":4647,"202":4648,"Network":4649,"ASSERT":4650,"wild":4651,"FC":4652,"details":4653,"ĠSOFTWARE":4654,"counter":4655,"/\">":4656,"Ġadded":4657,"ĠĠĠĠĠĠĠĠĠĠĠĠĠĠĠĠĠĠĠĠĠ":4658,"Ġbits":4659,".',":4660,"depth":4661,"Spell":4662,"('#":4663,"git":4664,"ĠUnless":4665,"Expr":4666,"uring":4667,"Ġbegin":4668,"bp":4669,"Ġmenu":4670,"icrosoft":4671,"ĠBy":4672,"attributes":4673,"NONE":4674,"%,":4675,"Build":4676,"Ġboth":4677,"Ġacc":4678,"xC":4679,"\")]":4680,"=\\\"":4681,"Ġdepend":4682,"Âł":4683,"FP":4684,"shared":4685,"\":\"":4686,"Ġinstead":4687,"Ġsave":4688,"Ġsample":4689,"ually":4690,"ĠĠĠĠĠĠĠĠĠĠĠĠĠĠĠĠĠĠĠĠĠĠĠĠĠĠĠĠĠĠĠĠĠĠĠĠĠĠĠĠĠĠĠĠĠĠĠĠĠĠĠĠĠĠĠĠĠĠĠĠĠĠĠĠ":4691,"Ġstop":4692,"audio":4693,"Socket":4694,"ĠĊĠĠĠĠĠĠĠĠĠĠĠ":4695,"reshold":4696,"sa":4697,"Ġcorrect":4698,"ĠKey":4699,"Main":4700,"LIST":4701,"STRING":4702,"Ġoperator":4703,"ialization":4704,"Selection":4705,"pyx":4706,"asm":4707,"UNT":4708,"ness":4709,"Ġtab":4710,"nr":4711,"Ġtransform":4712,"=\"\"":4713,"USER":4714,")\"":4715,"ELL":4716,"ĠBase":4717,".\",":4718,"socket":4719,"ading":4720,"Attributes":4721,"Ġreport":4722,"Ste":4723,"()).":4724,"vc":4725,"Ġtransparent":4726,"regs":4727,"itter":4728,"mouse":4729,"ched":4730,"ura":4731,"FIELD":4732,"ĠĠĠĠĠĠĠĠĠĠĠĠĠĠĠĠĠĠĠĠ":4733,"Ġunit":4734,"Double":4735,"ĠNAME":4736,"Ġreal":4737,"ENO":4738,"contrib":4739,";\">":4740,"ictionary":4741,"urface":4742,"then":4743,"contains":4744,"comm":4745,"Database":4746,"quiv":4747,"ONG":4748,"soc":4749,"fi":4750,"eeded":4751,"Ġput":4752,"Transform":4753,"reser":4754,"jpg":4755,"agement":4756,"destroy":4757,"EVENT":4758,"]->":4759,"ĠjQuery":4760,"Ġ[],":4761,"Ġnetwork":4762,"transition":4763,"children":4764,"variable":4765,"legal":4766,"qui":4767,"eek":4768,"EG":4769,"ĠOr":4770,"Ġ'';":4771,"ĠSET":4772,"Memory":4773,"Ġhelp":4774,"sive":4775,"acy":4776,"ĠInteger":4777,"Packet":4778,"Extension":4779,"}/":4780,"inte":4781,"Ġtypename":4782,"Ġerrors":4783,"tc":4784,"Ġ'%":4785,"gpio":4786,"compiler":4787,"Ġicon":4788,"Media":4789,"ĠSub":4790,"Execut":4791,"Profile":4792,"Red":4793,"Ġplayer":4794,"Pool":4795,"continue":4796,"Loader":4797,"_->":4798,"cover":4799,"ping":4800,"Ġconvert":4801,"ĠLo":4802,"kw":4803,"usb":4804,".\");":4805,"Ġnotice":4806,"Ġhow":4807,"400":4808,"submit":4809,"Ġassign":4810,";/":4811,"BL":4812,"Ġproto":4813,"Pointer":4814,"================================================================":4815,"{%":4816,"Timer":4817,"Ġactual":4818,"Ġsys":4819,"Ġdst":4820,"username":4821,"printk":4822,"sock":4823,"progress":4824,"Ġ64":4825,"9999":4826,"issing":4827,"ĠSPE":4828,"NUM":4829,"Mask":4830,"Ġdifferent":4831,"Ġ<?":4832,")).":4833,"Ġprintf":4834,"tools":4835,"Ġtimeout":4836,"Results":4837,"execute":4838,"ç»":4839,"RAY":4840,"cour":4841,"ummy":4842,"voke":4843,"na":4844,"arrow":4845,"Ġclose":4846,"Ġinsert":4847,"Ġstructure":4848,"WS":4849,"gnu":4850,"game":4851,"Ġnp":4852,"WRITE":4853,"aws":4854,"Ġtool":4855,"gre":4856,"<!":4857,"Ġpassed":4858,"Te":4859,"MPL":4860,"Ġcollection":4861,"Selected":4862,"čĊĠĠĠĠĠĠĠĠĠĠĠĠĠĠĠĠĠĠĠĠĠĠĠĠĠĠĠ":4863,"gu":4864,"Ġotherwise":4865,"pid":4866,"Ġ=========":4867,"ocus":4868,"complete":4869,"ansport":4870,"ĠRead":4871,"Require":4872,"xD":4873,"ae":4874,"Scale":4875,"PACK":4876,"ĊĠĠĠĠĠĠĠĠĠĠĠĠĠĠĠĠĠĠĠĠĠĠĠĠĠĠĠĠ":4877,"zz":4878,"Ġtd":4879,"Ġindic":4880,"Ġns":4881,"Ġdriver":4882,"where":4883,"boost":4884,"RECT":4885,"ĠForm":4886,"Ġaccount":4887,"SPE":4888,"Ġ19":4889,"redential":4890,"oly":4891,"ĠCode":4892,"shift":4893,"sidebar":4894,"ĠText":4895,"ĠPer":4896,"ÙĨ":4897,"external":4898,"Ġclean":4899,"bi":4900,"olver":4901,"Ġsince":4902,"à§":4903,"Ġocc":4904,"ested":4905,"role":4906,"Ġauth":4907,"invalid":4908,"}{":4909,"ants":4910,"Ġnodes":4911,"Feature":4912,"INST":4913,"ĠNote":4914,"asure":4915,"ao":4916,"PA":4917,"START":4918,"Ġ*,":4919,"groups":4920,"Word":4921,"ajax":4922,"Ġbased":4923,"Ñı":4924,"ĠLOG":4925,"oration":4926,"Keys":4927,"coin":4928,"policy":4929,"trics":4930,"Internal":4931,"Ġmd":4932,"Ġdoesn":4933,":%":4934,"virtual":4935,"DU":4936,"ĠUSE":4937,"ĊĊĊĊĊĊĊĊ":4938,"mach":4939,"Game":4940,"checkbox":4941,"ĠĊĠĠĠĠ":4942,"COMM":4943,"itu":4944,"hy":4945,"ives":4946,"memory":4947,"ĠDesc":4948,"metadata":4949,"pull":4950,"CCESS":4951,"vid":4952,"TIM":4953,"errors":4954,"('.":4955,"Directory":4956,"ĊĠĠĠĠĠĠĠĠĠĠĠĠĠĠĠĠĠĠĠĠĠĠĠĠĠĠĠĠĠ":4957,"anner":4958,"NC":4959,"FIX":4960,"bf":4961,"Proxy":4962,"losed":4963,"users":4964,"}\"":4965,"glyphicon":4966,"Ġloop":4967,")\\":4968,"Help":4969,"runtime":4970,"trl":4971,"protocol":4972,"SV":4973,"Ġpr":4974,"Ġcould":4975,"exec":4976,"IAL":4977,"atomic":4978,"Ġattributes":4979,"ANCE":4980,"Ġsupported":4981,"ĊĠĠĠĠĠĠĠĠĠĠĠĠĠĠĠĠĠĠĠĠĠĠĠĠĠĠ":4982,"eta":4983,"Mouse":4984,"æĺ¯":4985,"RIGHT":4986,"}.":4987,"since":4988,"wl":4989,"Each":4990,"Ġcannot":4991,"Ġtypeof":4992,"utable":4993,"Selector":4994,"DMA":4995,"]*":4996,"ĠIE":4997,"EXPORT":4998,"Ġagain":4999,"'re":5000,"ĊĠĠĠĠĠĠĠĠĠĠĠĠĊĠĠĠĠĠĠĠĠĠĠĠ":5001,"è¡":5002,"gorithm":5003,"Attr":5004,"åŃ":5005,"quote":5006,"properties":5007,"Ġapply":5008,"commit":5009,"Ġwx":5010,"AVE":5011,"Ġprefix":5012,"hpp":5013,"(@":5014,"iki":5015,"wd":5016,"Ġreplace":5017,"']);":5018,"hedul":5019,"browser":5020,"inherit":5021,"ĠGPIO":5022,"entication":5023,"Member":5024,"collapse":5025,"gradient":5026,"ges":5027,"rome":5028,"cut":5029,"CAP":5030,"Ġzero":5031,"lipse":5032,"################################":5033,"Space":5034,"CLASS":5035,"\\+":5036,"found":5037,"Ġmsm":5038,"AI":5039,"ĊĊĠĠĠĠĠĠĠĠĠ":5040,"Ġwould":5041,".<":5042,"ĠEN":5043,"href":5044,"come":5045,"Ġenabled":5046,"lines":5047,"svg":5048,")\",":5049,"UEST":5050,"Ob":5051,"itive":5052,"Nodes":5053,"verter":5054,"cu":5055,"ĠSk":5056,"Ġjob":5057,"Ġimplements":5058,"Ġbind":5059,"ToString":5060,"ymf":5061,"SW":5062,"LOAD":5063,"scan":5064,"áĥ":5065,"ymfony":5066,"ĠMessage":5067,"Ġalways":5068,"ili":5069,"endor":5070,"ARGET":5071,"Events":5072,"DEC":5073,"Ġ\"\";":5074,"Ġlib":5075,"Dest":5076,"INTER":5077,"loop":5078,"Flag":5079,"opts":5080,"Wrapper":5081,"Constants":5082,"detail":5083,"safe":5084,"Ġhand":5085,"Ġpossible":5086,"WIN":5087,"SOUR":5088,"ressed":5089,"æķ°":5090,"va":5091,"dep":5092,"owner":5093,"throw":5094,"loader":5095,"rd":5096,"components":5097,"Trace":5098,"msm":5099,"Ind":5100,"raft":5101,"UTE":5102,"Role":5103,"scss":5104,"Ġ{{":5105,"Ġdefinition":5106,"rec":5107,"random":5108,"icode":5109,"BAR":5110,"SPAN":5111,"identifier":5112,"Ġhigh":5113,"logger":5114,"Ġ17":5115,"println":5116,"Ð¼":5117,"lign":5118,"sz":5119,"\"><!--":5120,"ĠCH":5121,"Conf":5122,"001":5123,"Fail":5124,"ĠLoc":5125,"TRUE":5126,"UINT":5127,"upload":5128,"dump":5129,"als":5130,"pub":5131,"Ġpassword":5132,"visible":5133,"VAR":5134,"Ġskip":5135,"Ġbinary":5136,"ĠEND":5137,"Java":5138,"Ġrelease":5139,"dist":5140,"Ġtranslate":5141,"Ġob":5142,"NET":5143,"ĠSU":5144,"Ġdocumentation":5145,"Warning":5146,"That":5147,"Cap":5148,"Ġassociated":5149,"storage":5150,"æĹ":5151,"éĢ":5152,"Ġsuch":5153,"adoop":5154,"pointer":5155,"tect":5156,"jection":5157,"ulator":5158,"Full":5159,"feature":5160,"ench":5161,"Annot":5162,"activ":5163,"Ġrot":5164,"Ġ];":5165,"Scroll":5166,"()</":5167,"ĠOption":5168,"ium":5169,"FFER":5170,"ĠAt":5171,"Statement":5172,"Ø±":5173,"WARN":5174,"Ġ&=":5175,"Protocol":5176,"GEN":5177,"operand":5178,"typename":5179,"Ġadditional":5180,"]))":5181,"RI":5182,"Eng":5183,"ied":5184,"]+":5185,"Found":5186,"props":5187,"('/":5188,"=$":5189,"alys":5190,"ather":5191,"Ġabsolute":5192,"ĠASS":5193,":#":5194,"Ġcursor":5195,"Lim":5196,"Abstract":5197,"kens":5198,"ARD":5199,"lus":5200,"Ġwithin":5201,"ĠDB":5202,"Ġentity":5203,"security":5204,"Pattern":5205,"UTF":5206,"Ġ2015":5207,"cel":5208,"ĠHt":5209,"Ġcharacter":5210,"utes":5211,"Mac":5212,"Ġ1000":5213,"ysql":5214,"ertific":5215,"à®":5216,"helper":5217,"flex":5218,"Ġvert":5219,"LIB":5220,"ĠOut":5221,"collection":5222,"usr":5223,"Ġ----------------------------------------------------------------":5224,"grade":5225,"Runtime":5226,"å°":5227,"ĉĉĉĉĉĉĉĉ":5228,"ube":5229,"Ġfix":5230,"MAC":5231,"look":5232,"Ġsymbol":5233,"Ġchanges":5234,"USB":5235,"/\"":5236,"Ġmachine":5237,"alysis":5238,"Any":5239,"čĊĉĉĉĉĉĉ":5240,"crement":5241,"Ġdomain":5242,"UND":5243,"å¼":5244,"atio":5245,"Admin":5246,"Activity":5247,"ĠIOException":5248,"slice":5249,"ORS":5250,"Effect":5251,"ä¹":5252,"NV":5253,"Import":5254,"Simple":5255,"radio":5256,"Temp":5257,"->{":5258,"ND":5259,"Visible":5260,"Ġpop":5261,"Ġway":5262,"ILD":5263,"BB":5264,"ĊĠĠĠĠĠĠĠĠĠĠĠĠĠĠĠĠĠĠĠĠĠĠĠĠĠĠĠĠĠĠĠĠĠĠĠĠĠĠĠĠĠĠĠĠĠĠĠ":5265,"NotNull":5266,"indexOf":5267,"Ġ\".":5268,"rg":5269,"UPDATE":5270,"Mapping":5271,"Ġtheir":5272,"čĊĠĠĠĠĠĠĠĠĠĠĠĠĠĠĠĠĠĠĠĠĠĠĠĠĠĠĠĠĠĠĠĠĠĠĠ":5273,"Ġmock":5274,"Ġidx":5275,"()))":5276,"required":5277,"picker":5278,"'}":5279,"sf":5280,"Ġ).":5281,"Ġlang":5282,"Engine":5283,"encies":5284,"Save":5285,"Ġinv":5286,"jango":5287,"ĠRegister":5288,"Ġneeded":5289,"ĠDEFAULT":5290,"akes":5291,"ĠĊĠĠĠĠĠĠĠ":5292,"SYS":5293,"TS":5294,"Ġmultiple":5295,"derr":5296,"THOD":5297,"ĊĉĠĠĠĠĠĠĠ":5298,"rect":5299,"hci":5300,"EY":5301,"hes":5302,"čĊĠĠĠĠĠĠĠĠĠ":5303,"ffic":5304,"Ġ\\\"":5305,"nodes":5306,"CLUD":5307,"Ġsetting":5308,"blog":5309,"CLUDING":5310,"EEEE":5311,"alle":5312,"schema":5313,"Generic":5314,"\"].":5315,"bound":5316,"caption":5317,"ayment":5318,"ocaml":5319,"mediate":5320,"sel":5321,"Ġfmt":5322,"zero":5323,"tf":5324,"mob":5325,"El":5326,"Ġmatrix":5327,"Tx":5328,"Ġbottom":5329,"ĠDO":5330,"ons":5331,"annotation":5332,"VIDE":5333,"ĠStatus":5334,"ĠPoint":5335,"horizontal":5336,"alf":5337,"Ġmp":5338,"You":5339,"PF":5340,"ĠBit":5341,"Ġbr":5342,"Ġgenerated":5343,"Ġdim":5344,"chart":5345,"elem":5346,"Ġapi":5347,"300":5348,"Ġwhat":5349,"velop":5350,"Ġcharset":5351,"nost":5352,"Move":5353,"Ġchanged":5354,"ĠHash":5355,"ĠVector":5356,"CTYPE":5357,"ship":5358,"ĊĉĉĠ":5359,"Ġvia":5360,"drv":5361,"headers":5362,"!!":5363,"ĠPH":5364,"tsd":5365,"mater":5366,"Product":5367,"nl":5368,"Ġdraw":5369,"SUCCESS":5370,"Ġplatform":5371,"sumer":5372,"mix":5373,"Security":5374,"Stats":5375,"parameters":5376,"Ġstrict":5377,"CPU":5378,"ĠASSERT":5379,"/_":5380,"ha":5381,"Prefix":5382,"extra":5383,"Ġmove":5384,"force":5385,"Ġevery":5386,"ĠĠĠĠĠĠĠĠĠĠĠĠĠĠĠĠĠĠĠĠĠĠĠ":5387,"Ð´":5388,"Repository":5389,"requ":5390,"Ġhidden":5391,"vance":5392,"rot":5393,"vt":5394,"Ġcap":5395,"spacing":5396,"bot":5397,"Ġasync":5398,"Ġlogger":5399,"Ġconstructor":5400,"async":5401,"Ġimplementation":5402,"culate":5403,"Ġinterrupt":5404,"Ġsetup":5405,"ĠWindow":5406,"Ġsmall":5407,"OW":5408,"ĠON":5409,"Ñĭ":5410,"elf":5411,"Sort":5412,"Ġnullptr":5413,"Addr":5414,"999":5415,"Ġ=======":5416,"acters":5417,"operator":5418,"ĠCONTR":5419,"ÙĦ":5420,"round":5421,"Ġtri":5422,"inc":5423,",$":5424,"zip":5425,"IconError":5426,"Ġauthor":5427,"aut":5428,"Ġproduct":5429,"mu":5430,"Before":5431,"Identifier":5432,"ATCH":5433,"ĠMethod":5434,"Multi":5435,"Vertex":5436,"Ġ''":5437,"PARAM":5438,"Ġok":5439,"Math":5440,"Ġexists":5441,"IconErrorEncoded":5442,"vs":5443,"special":5444,"Qt":5445,"mbers":5446,"respon":5447,"istics":5448,"Ġ40":5449,"Pr":5450,"ORDER":5451,"Shape":5452,"heme":5453,"Ġdec":5454,"note":5455,"ĠĊĠ":5456,"mk":5457,"Ġ$.":5458,"ĠNumber":5459,"fixed":5460,"Common":5461,"ĠIF":5462,"ategy":5463,"SUB":5464,"once":5465,"hi":5466,"ĠLICENSE":5467,"ĠSQL":5468,"Namespace":5469,"čĊĠĠĠĠĠĠĠĠĠĠĠĠĠĠĠĠĠĠĠĠĠĠĠĠĠĠĠĠĠĠĠ":5470,"ĠCELL":5471,"ĠArrayList":5472,"Ġsocket":5473,"Ġsu":5474,"\"`":5475,"ublish":5476,"ä¸ª":5477,"Ġbuilder":5478,"Ġaccept":5479,"console":5480,"BACK":5481,"Ġ^":5482,"æī":5483,"ĠRequest":5484,"ÑĮ":5485,"EP":5486,"condition":5487,"GO":5488,"Ġconnect":5489,"ĠDis":5490,"Fin":5491,"CUR":5492,"resources":5493,"Ġgraph":5494,"åĽ":5495,"Bits":5496,"Ġperform":5497,"quires":5498,"EST":5499,"diff":5500,"ĠUN":5501,"expect":5502,"ĠInput":5503,"sy":5504,"encode":5505,"Category":5506,"ĠOTHER":5507,"ĠĠĠĠĠĠĠĠĠĠĠĠĠĠĠĠĠĠĠĠĠĠ":5508,"BUFFER":5509,"Ð²":5510,"lain":5511,"actions":5512,"urrency":5513,"jQuery":5514,"BYTE":5515,"ĠÂ":5516,"repeat":5517,"Ġsnd":5518,"SSL":5519,"Total":5520,"Ġmedia":5521,"Ġ();":5522,">'":5523,"ĠImp":5524,"attach":5525,"Ġ(%":5526,"ident":5527,"fw":5528,"highlight":5529,"Language":5530,"TAG":5531,"Ġrunning":5532,"Ġexpression":5533,"olution":5534,"NG":5535,"Ġpan":5536,"aaaa":5537,"Ġsequence":5538,"Ġwallet":5539,"loor":5540,"retval":5541,"EEEEFF":5542,"DOCTYPE":5543,"Sample":5544,"Dec":5545,"riteria":5546,"ibrary":5547,"cursor":5548,"course":5549,"Ġim":5550,"cn":5551,"eriv":5552,"ensure":5553,"Ġvm":5554,"Ġbelow":5555,"Password":5556,"Ġparser":5557,"hadoop":5558,"Ġrandom":5559,"ĠAct":5560,"ĠKEY":5561,"Generator":5562,"OPY":5563,"HR":5564,"imate":5565,"oll":5566,"SEL":5567,"=-":5568,"=(":5569,"Sequence":5570,"(\"#":5571,"ached":5572,"sser":5573,"377":5574,"foreach":5575,"DEX":5576,"agent":5577,"Ġfill":5578,"ĠAb":5579,"Ġtests":5580,"ĠMake":5581,"ullable":5582,"Ġwr":5583,"Proto":5584,"ĠVal":5585,"Ġest":5586,"pare":5587,"ĊĉĉĉĠĠĠ":5588,"utomatic":5589,"Ġcop":5590,"Align":5591,"Area":5592,"builder":5593,"Region":5594,"Ġà¤":5595,"Browser":5596,"napshot":5597,"Details":5598,"objects":5599,"pear":5600,"ĠItem":5601,"Ġpattern":5602,"Ġscreen":5603,"%\"":5604,"Ġ\"#":5605,"Ġraw":5606,"Registry":5607,"åį":5608,"ĠSource":5609,"ka":5610,"igr":5611,"ough":5612,"Ġside":5613,"pad":5614,"ssl":5615,"proxy":5616,"spi":5617,"navList":5618,"dup":5619,"HTTP":5620,"ured":5621,"ital":5622,"Ġgenerate":5623,"/*!":5624,"Ġgen":5625,"allclasses":5626,"ARCH":5627,"čĊčĊĠĠĠĠĠĠĠĠĠĠĠ":5628,"VEL":5629,"ĠCOPY":5630,"å¯":5631,"Av":5632,"supported":5633,"kt":5634,"Ġ'\"":5635,"AF":5636,"Pair":5637,"pattern":5638,"SOURCE":5639,"resses":5640,"Ġopacity":5641,"pdev":5642,"Ġes":5643,"tries":5644,"romise":5645,"Pe":5646,"route":5647,"rev":5648,"Ġtrigger":5649,"ĠField":5650,"TK":5651,"FOR":5652,"Opt":5653,"LC":5654,"COUNT":5655,"notify":5656,"pet":5657,"Ġ2014":5658,"åº":5659,"parameter":5660,"Ġelif":5661,"Ġemail":5662,"NavBarFont":5663,"LY":5664,"thumb":5665,"Texture":5666,"chunk":5667,"JS":5668,"fetch":5669,"Condition":5670,"tv":5671,"escape":5672,"~~~~":5673,"Ġ'.":5674,"validate":5675,"colLast":5676,"signature":5677,"contents":5678,"0001":5679,"Stat":5680,"Agent":5681,"bat":5682,"green":5683,"illa":5684,"Ġvol":5685,"TUR":5686,"ĠJava":5687,"isc":5688,"Ġwhite":5689,"Ã§":5690,"Bl":5691,"unique":5692,"material":5693,"ĠWhen":5694,"Ġspan":5695,"URI":5696,"__);":5697,"tm":5698,"xhtml":5699,"(\"/":5700,"Constraint":5701,"ĠDA":5702,"phy":5703,"extend":5704,"OBJECT":5705,"atile":5706,"TRACE":5707,"clone":5708,"Ġshift":5709,"ood":5710,"Cmd":5711,"Ġdesc":5712,"angular":5713,"Ġvariables":5714,"Mat":5715,"tile":5716,"mitted":5717,"Ġonce":5718,"Ġiss":5719,"After":5720,"Ġpoints":5721,"contact":5722,"istration":5723,"Ġ(!(":5724,"Ġoptional":5725,"strict":5726,"Second":5727,"ĊĉĠĠĠĠ":5728,"Ġlinks":5729,"Db":5730,"effect":5731,"ĠCo":5732,"Route":5733,"DateTime":5734,"Ġimg":5735,"oog":5736,"flush":5737,"Ġsent":5738,"Ġsql":5739,"Div":5740,"ari":5741,"Elements":5742,"(\"\\":5743,"ulate":5744,"Ġmessages":5745,"Ġcore":5746,"ĠHe":5747,"Duration":5748,"pin":5749,"LS":5750,"ruby":5751,"lers":5752,"Step":5753,"Ġ'#":5754,"||":5755,"ĊĉĉĉĠ":5756,"Sync":5757,"chain":5758,"colFirst":5759,"ä¸Ń":5760,"Ġkeep":5761,"getValue":5762,"ìĿ":5763,"Ġ00":5764,"PAGE":5765,"ves":5766,"los":5767,"ĠÐ¿":5768,"Ġbound":5769,"merge":5770,"alpha":5771,"Ġappend":5772,"clock":5773,"ĠStart":5774,"linear":5775,"ĠAnd":5776,"constructor":5777,"INVALID":5778,"BLOCK":5779,"ĠView":5780,"SG":5781,"ks":5782,"ÛĮ":5783,"Ġdisabled":5784,"ĊĊĉĉĉĉ":5785,"icate":5786,"Ġexisting":5787,":'":5788,"Ġfeature":5789,"LINK":5790,"heduler":5791,"Ġamount":5792,"marks":5793,"()),":5794,"rank":5795,"Â¤":5796,"Ã¥":5797,"(/":5798,"Ġusb":5799,"orrect":5800,"pair":5801,"gative":5802,"mal":5803,"ĠTra":5804,"CALL":5805,"gif":5806,"Ġendif":5807,"FUNCTION":5808,"Ġcontaining":5809,"Play":5810,"ĠLIMIT":5811,"gc":5812,"101":5813,"Ġcolspan":5814,"Ġbar":5815,"BUS":5816,"Ġheaders":5817,"GRO":5818,"unch":5819,"Ġallowed":5820,"LD":5821,"Forms":5822,"cluding":5823,"Section":5824,"Progress":5825,"Ġinherit":5826,"cook":5827,"Ġ60":5828,"amage":5829,"heading":5830,"Interval":5831,"Ġ×":5832,"Ġsubject":5833,"ĠIMP":5834,"Ġextra":5835,"alert":5836,"ĊĉĠĠ":5837,"YY":5838,"loaded":5839,"slot":5840,"claration":5841,"feed":5842,"lik":5843,"Ġlines":5844,"Ġč":5845,"Skip":5846,"ĠPCI":5847,"yes":5848,"Ġlayer":5849,"ble":5850,"havior":5851,"argv":5852,"big":5853,"isEmpty":5854,"Ġmov":5855,"So":5856,"dm":5857,"AST":5858,"ja":5859,"OFFSET":5860,"undefined":5861,"Ġedit":5862,"ĠXML":5863,"blue":5864,"ĠTask":5865,"ĠImage":5866,"ulation":5867,"kernel":5868,"road":5869,"IRQ":5870,"ĠQt":5871,"Ġchunk":5872,"hip":5873,"___":5874,"ros":5875,"Free":5876,"matrix":5877,"ights":5878,"testing":5879,"generated":5880,"vars":5881,"depend":5882,"Find":5883,"izes":5884,"ĠAuthor":5885,"ĠSD":5886,"Screen":5887,"ĠCre":5888,"logy":5889,"Des":5890,"spend":5891,"alance":5892,"PIN":5893,"dbg":5894,"Ġwritten":5895,"ÙĪ":5896,"Ġuntil":5897,"strip":5898,"Ġpresent":5899,"Ġopts":5900,"ycle":5901,"llegal":5902,"ertificate":5903,"ites":5904,"construct":5905,"FB":5906,"ISE":5907,"Ġperson":5908,"icket":5909,"Ġcontroller":5910,"Ġclock":5911,")\">":5912,"Author":5913,"archive":5914,"ĠGets":5915,"covery":5916,"PY":5917,"alth":5918,"]['":5919,"Folder":5920,"Gr":5921,"Ġextension":5922,"iagnost":5923,"UST":5924,"åľ¨":5925,")[":5926,"RESS":5927,"Fix":5928,"Ids":5929,"atible":5930,"Rate":5931,"FD":5932,"WA":5933,"Returns":5934,"pow":5935,"æł":5936,"download":5937,"Ġdisable":5938,"FORMAT":5939,"ĊĠĠĠĠĠĠĠĠĠĠĠĠĠĠĠĠĠĠĠĠĠĠĠĠĠĠĠĠĠĠ":5940,"curr":5941,"LETE":5942,"Clear":5943,"Ġ22":5944,"DBG":5945,"Ġsum":5946,"roke":5947,"ĠMem":5948,"________":5949,"'=>":5950,"Ġplay":5951,"Short":5952,"Limit":5953,"question":5954,"cessed":5955,"**/":5956,"aries":5957,"ceiver":5958,"GTH":5959,"rv":5960,"Ġanother":5961,"FAIL":5962,"dot":5963,"LEVEL":5964,">';":5965,"sensor":5966,"Normal":5967,"Ġsim":5968,"Ġinode":5969,"Ġmember":5970,"ison":5971,"500":5972,"Ġmac":5973,"phone":5974,"slide":5975,"GUID":5976,"VR":5977,"duce":5978,"ica":5979,"Ġmetadata":5980,"aff":5981,"Ġbrowser":5982,"ĠTe":5983,"ĠHandle":5984,"ement":5985,"âĶ":5986,"Video":5987,"AX":5988,"Ġsb":5989,"WM":5990,"Bound":5991,"cons":5992,"Ġtoo":5993,"HAS":5994,"itude":5995,"tegr":5996,"Volume":5997,":(":5998,"Tile":5999,"checked":6000,"ĠIndex":6001,"ird":6002,"ĠREG":6003,"lave":6004,"slider":6005,"uses":6006,"Ġsite":6007,"Comment":6008,"Ġë":6009,"inf":6010,"Ġeq":6011,"inux":6012,"gnore":6013,"HO":6014,"single":6015,"idate":6016,"Html":6017,"views":6018,"Tri":6019,"CONTR":6020,"cluster":6021,"ĠLesser":6022,"Ali":6023,"ĠWrite":6024,"ÐµÐ½":6025,"getElementById":6026,"Ġmaximum":6027,"Ġcontribut":6028,"ĠHttp":6029,"Ġprev":6030,"Single":6031,"ooks":6032,"ĠGoogle":6033,"Øª":6034,"VO":6035,"Dim":6036,"Ġstrings":6037,"Ġcurrently":6038,"Permission":6039,"sequence":6040,"$_":6041,"ĠRemove":6042,"MBOL":6043,"æľī":6044,"MBER":6045,"ĠMod":6046,"Depend":6047,"ĠHTTP":6048,"Ġoverflow":6049,"PK":6050,"COM":6051,"Ġsimple":6052,"Lower":6053,"services":6054,"ĠRun":6055,"Ġptr":6056,"ĠBY":6057,"PHP":6058,"nil":6059,"Ġremoved":6060,"Ãł":6061,"&&":6062,"Ġincluded":6063,"compare":6064,";\"":6065,"ãģ®":6066,"HAL":6067,"Ġupdated":6068,"ookie":6069,"Ġscroll":6070,"integer":6071,"Ġduring":6072,"factory":6073,"bose":6074,"=\"<?":6075,"ĠDMA":6076,"dk":6077,"ĠBe":6078,"Bean":6079,"blk":6080,"Ġstat":6081,"Props":6082,"ategories":6083,"Ġlayout":6084,"ric":6085,"changed":6086,"Ġwidget":6087,"ture":6088,"aging":6089,"uest":6090,"pci":6091,"***":6092,"rest":6093,"deg":6094,"pb":6095,"Ġday":6096,"gui":6097,"ĠTHIS":6098,"Ġatt":6099,"ĠSY":6100,"lier":6101,"oose":6102,"mpt":6103,"Ġ[[":6104,"ĠDet":6105,"Ġsock":6106,"LIED":6107,"Ġeffect":6108,"ifiers":6109,"ands":6110,"TRAN":6111,"Ġuses":6112,"mapping":6113,"LIC":6114,"Ġcomment":6115,"lush":6116,"wx":6117,"circle":6118,"redentials":6119,"dx":6120,"Ġneeds":6121,"Ġmost":6122,"DIO":6123,"cker":6124,"mbda":6125,"Ġ(&":6126,"database":6127,"alar":6128,"METHOD":6129,"PD":6130,"Ġtransition":6131,"ifies":6132,"duration":6133,"year":6134,"ĠNe":6135,"speed":6136,"Ġhf":6137,"Drawing":6138,"Collections":6139,"ĠStr":6140,">\\":6141,"Driver":6142,"Ġshape":6143,"AW":6144,"512":6145,"Pop":6146,"Ġwarning":6147,"axis":6148,"warn":6149,"Ġwere":6150,"Ġloaded":6151,"Ġavoid":6152,"emon":6153,"remote":6154,">:":6155,"Ġregion":6156,"aves":6157,"utdown":6158,"Ġcomplete":6159,"ÑģÑĤ":6160,"Day":6161,"requency":6162,"anger":6163,"arp":6164,"eee":6165,"($_":6166,"ĠBoolean":6167,"decode":6168,"direction":6169,"']))":6170,"ATOR":6171,"ĠAT":6172,"Â¡":6173,"Prop":6174,"ATURE":6175,"pending":6176,"eclipse":6177,"Ġ',":6178,"delta":6179,"volume":6180,"simple":6181,"aged":6182,"resp":6183,"IMP":6184,"__)":6185,"logo":6186,"ĠNS":6187,"...</":6188,"Ġvideo":6189,"TURN":6190,"ĠHel":6191,"HAND":6192,"Ġmeans":6193,"LENGTH":6194,"basic":6195,">\"":6196,"Unknown":6197,"timestamp":6198,"pd":6199,"Ùħ":6200,"ĠReact":6201,"IZ":6202,"gi":6203,"peri":6204,"lookup":6205,"Renderer":6206,"POS":6207,"Ġpower":6208,"Lat":6209,"ä¸į":6210,"ĠBUT":6211,"Ġsets":6212,"RPC":6213,"FRAME":6214,"convert":6215,"lastic":6216,"ĠOUT":6217,"Ġrequests":6218,"ĊĠĠĠĠĠĠĠĠĠĠĠĠĠĠĠĠĠĠĠĠĠĠĠĠĠĠĠĠĠĠĠĠĠ":6219,"FALSE":6220,"answ":6221,":\\":6222,"Ġawait":6223,"Ġentries":6224,"ĠTYPE":6225,"Ġtypedef":6226,"LOB":6227,"Ġcommon":6228,"ĠCPU":6229,"Ġbus":6230,"åĨ":6231,"ĠResource":6232,"Stop":6233,">)":6234,"Ġmight":6235,"ãĥ¼":6236,"zer":6237,"Ġblocks":6238,"tcp":6239,"Ġ(((":6240,"ni":6241,"columns":6242,"SYMBOL":6243,"GPL":6244,"flat":6245,"Children":6246,"ĠBuild":6247,"Ġappro":6248,"ĠDAMAGE":6249,"Ġstill":6250,"multi":6251,"Buf":6252,"cancel":6253,"Ð°Ð½":6254,"Ġstorage":6255,"World":6256,"čĊčĊĠ":6257,"Uri":6258,"MAIN":6259,"ĠSE":6260,"Ġdep":6261,"Sec":6262,"touch":6263,"termin":6264,"folder":6265,"RESULT":6266,"Ġnavigation":6267,"Ġ\";":6268,"Ġhead":6269,"Ġvisible":6270,"Resources":6271,"Ġverify":6272,"2015":6273,"ffffff":6274,"ORK":6275,"It":6276,"ĠModel":6277,"ĠBOOST":6278,"ĠNAV":6279,"Âµ":6280,"inv":6281,"ĠWIDTH":6282,"DIV":6283,"Ġlistener":6284,"ACTION":6285,"Private":6286,"ĠMy":6287,"eners":6288,"Br":6289,"Ġease":6290,"Ġprop":6291,"åĩ":6292,"ĠCOL":6293,"deprecated":6294,"GA":6295,"otion":6296,"webpack":6297,"Ġpixel":6298,"izing":6299,"ISC":6300,"tbl":6301,"PLAY":6302,"------------------------------------------------":6303,"Ġpipe":6304,"Ġdirection":6305,"ĊĊĠĠĠĠĠĠĠĠĠĠĠĠĠĠĠĠĠĠĠĠĠĠĠ":6306,"Ġ\">":6307,"restore":6308,"ĠId":6309,"Ġunique":6310,"ĠĠĠĠĠĠĠĠĠĠĠĠĠĠĠĠĠĠĠĠĠĠĠĠ":6311,"ĠOper":6312,"Ġ'_":6313,"gy":6314,"ĠEVENT":6315,"Ġcharacters":6316,"ane":6317,"ãĢģ":6318,"ĠPR":6319,"maps":6320,"Ġselection":6321,"Ġexternal":6322,"ĠPh":6323,"aper":6324,"refs":6325,"erved":6326,"failed":6327,"_)":6328,"ĠProject":6329,"Ġlow":6330,"original":6331,"chor":6332,"pixel":6333,"Ġtimer":6334,"riend":6335,"pdf":6336,"Ġyet":6337,"Ġmeta":6338,"Program":6339,"Ġmerge":6340,"Ġexecute":6341,"RF":6342,"pose":6343,"002":6344,"Ġreason":6345,"Ġcb":6346,"vertical":6347,"getId":6348,"Enable":6349,"signal":6350,"links":6351,"Ã¶":6352,"junit":6353,"Ġforce":6354,"DM":6355,"ĊĉĠĠĠĠĠĠĠĠĠĠĠ":6356,"ression":6357,"REQUEST":6358,"DOM":6359,"ĠTABLE":6360,"accept":6361,"Ġcluster":6362,"iform":6363,"share":6364,"ĠCal":6365,"edge":6366,"peg":6367,"Ġpair":6368,"SSION":6369,"stderr":6370,"Ġcalls":6371,"attrs":6372,"Ġdiff":6373,"created":6374,"2014":6375,"_);":6376,"Ġ##":6377,"Ġrows":6378,"ATED":6379,"Ġspecify":6380,"selection":6381,"references":6382,"Ġclick":6383,"large":6384,"ĉĉĉĉĉ":6385,"åĮ":6386,"Cursor":6387,"{$":6388,"Idx":6389,"Ġident":6390,"leton":6391,"Ã¼":6392,"Sql":6393,"issues":6394,"ĠBlock":6395,"trim":6396,"Gen":6397,"Ġ21":6398,"optional":6399,"Ġgrid":6400,"Email":6401,"ral":6402,"Pa":6403,"Ġusers":6404,"Ġsec":6405,"origin":6406,"><!--":6407,"Ġprotocol":6408,"elements":6409,"ĠService":6410,"oard":6411,"ANT":6412,"ĠSpec":6413,"oice":6414,"resolve":6415,"Ġhold":6416,"avai":6417,"Ġ23":6418,"stmt":6419,"ĠTable":6420,"ational":6421,"Export":6422,"Ġchain":6423,"Append":6424,"Decl":6425,"Ġcontents":6426,"BUILD":6427,"watch":6428,"python":6429,"Ø¯":6430,"uuid":6431,"directory":6432,"ĠCHE":6433,"FN":6434,"ĠNE":6435,"xt":6436,"mun":6437,"assertTrue":6438,"LAB":6439,"rase":6440,"\"\\":6441,"'):":6442,"Ġ_,":6443,"formed":6444,"Ġgu":6445,"ilities":6446,"forms":6447,"ĠAV":6448,"ĠIMPLIED":6449,"éĩ":6450,"Allow":6451,"DOWN":6452,"NODE":6453,"Ġcls":6454,"Ċĉĉĉĉĉĉĉĉĉĉĉ":6455,"Pass":6456,"clus":6457,"spring":6458,"!=":6459,"tooltip":6460,"$$":6461,"Ġchildren":6462,"hl":6463,"Ġ\");":6464,"mitive":6465,"Look":6466,"ront":6467,"miss":6468,"Assign":6469,"Ġatom":6470,"cdn":6471,"Ġspecial":6472,"servable":6473,"fly":6474,"See":6475,"Ġcard":6476,"acc":6477,"month":6478,"mise":6479,"Audio":6480,"ĠHAL":6481,"Ġencoding":6482,"InputStream":6483,"calendar":6484,"ĠAction":6485,"ada":6486,"Âĥ":6487,"Services":6488,"Real":6489,"ĠPath":6490,"uf":6491,"animation":6492,"disk":6493,"transaction":6494,"Ġselector":6495,"pv":6496,"Ġpool":6497,"Counter":6498,"Ġpages":6499,"arguments":6500,"mid":6501,"Ġcorrespon":6502,"Fn":6503,"Ñĩ":6504,"atar":6505,"obile":6506,"ĠSets":6507,"zy":6508,"seconds":6509,"--;":6510,"Pixel":6511,"Insert":6512,"Direct":6513,"setting":6514,"Required":6515,"Ġsd":6516,"(%":6517,"wm":6518,"Gui":6519,"Ġpa":6520,"Ġproxy":6521,"upt":6522,"CONTROL":6523,"USED":6524,"Ġdrop":6525,"Art":6526,"Cluster":6527,"TestCase":6528,"tests":6529,"hand":6530,"Wait":6531,"flu":6532,"å¾":6533,"ĠArg":6534,"quare":6535,"Ġhapp":6536,"Ġvec":6537,"kwargs":6538,"Ġremote":6539,"ĠDescription":6540,"PTR":6541,"ĠUI":6542,"Ġmapping":6543,"reply":6544,"Ġtake":6545,"Axis":6546,"ĠFT":6547,"fil":6548,"Ġreadonly":6549,"Ġknow":6550,"DED":6551,"dig":6552,"reader":6553,"Endpoint":6554,"duction":6555,"Install":6556,"Ġ\"'":6557,"Ġgame":6558,"cli":6559,"ĠCHECK":6560,"æ³":6561,"æĿ":6562,"resize":6563,"decl":6564,"equiv":6565,"prepare":6566,"awn":6567,"Ġcounter":6568,"bon":6569,"ENCE":6570,"BUF":6571,"pret":6572,"========================================================================":6573,"BC":6574,"ĠNet":6575,"Points":6576,"PROC":6577,"TARGET":6578,"uted":6579,"Binary":6580,"mag":6581,"Ty":6582,"ĊĠĠĠĠĊĠĠĠĠ":6583,"Ġ102":6584,"Ġensure":6585,"Flow":6586,"trieve":6587,"Ġspeed":6588,"Literal":6589,"Copyright":6590,"ĠLIMITED":6591,"Rows":6592,"Ġrect":6593,"ĠEnable":6594,"Ġunless":6595,"pdata":6596,"vendor":6597,"ĠassertThat":6598,"EventListener":6599,"Join":6600,"pkg":6601,"Headers":6602,"assembly":6603,"ker":6604,"Su":6605,"ĠPre":6606,"tle":6607,"DV":6608,"vlet":6609,"Ġclasses":6610,"Ġinitialize":6611,"score":6612,"ĠDocument":6613,"illi":6614,"Ġstored":6615,"çĽ":6616,"getInstance":6617,"(\\":6618,"STRU":6619,"Methods":6620,"//!":6621,"Reset":6622,"INDEX":6623,"ĠSC":6624,"Ġdes":6625,"Ġfixed":6626,"IOException":6627,"Ġschema":6628,"Ġhel":6629,"Ġdelay":6630,"DP":6631,"Ġ'</":6632,"ĠOutput":6633,"ĠCan":6634,"sass":6635,"variant":6636,"interval":6637,"sim":6638,"bra":6639,"intel":6640,"exist":6641,"Ġcolumns":6642,"ĠNAVBAR":6643,"Cast":6644,"ï¼ļ":6645,"sq":6646,"ĊĉĉĉĊĉĉ":6647,"canvas":6648,"Ġ>>>":6649,"Static":6650,"tempt":6651,"Enter":6652,"Plan":6653,"messages":6654,"Symfony":6655,"ĠLoad":6656,"ateway":6657,"blocks":6658,"Constructor":6659,"Ġabstract":6660,"anchor":6661,"maining":6662,"esh":6663,"snd":6664,"ĠUSA":6665,"ourse":6666,"nail":6667,"dw":6668,"batch":6669,"udo":6670,"........":6671,"ico":6672,"Ġcla":6673,"ght":6674,"Ġinstruction":6675,"»¿":6676,"program":6677,"Ġdistribution":6678,"selector":6679,"ĠCall":6680,"orp":6681,"AMP":6682,"locale":6683,"cessary":6684,"Ġgot":6685,"Fragment":6686,"Enumer":6687,"Ġsignal":6688,"Contact":6689,"words":6690,"methods":6691,"urs":6692,"Ġ'-":6693,"disp":6694,"UBLIC":6695,"extension":6696,"present":6697,"===":6698,"ipher":6699,"CREATE":6700,"oment":6701,"Ġmany":6702,"RED":6703,"eries":6704,"Example":6705,"ĠState":6706,"Ġfs":6707,"ï»¿":6708,"entries":6709,"ĠallClasses":6710,"swing":6711,"eric":6712,"isters":6713,"(((":6714,"ardware":6715,"Ġcr":6716,"}},":6717,"ĠallClassesLink":6718,"translate":6719,"æŀ":6720,"Ġprogress":6721,"Basic":6722,"OPTION":6723,"Ġmatches":6724,"OC":6725,">../":6726,"----------":6727,"High":6728,"Ġfailure":6729,"Focus":6730,"Alloc":6731,"ĠDATA":6732,"generate":6733,"Chain":6734,"Ġpush":6735,"RM":6736,"ural":6737,"ĠRedistribut":6738,"plot":6739,"ĊĠĠĠĠĠĠĠĠĠĠĠĠĠĠĠĠĠĠĠĠĠĠĠĠĠĠĠĠĠĠĠĠĠĠ":6740,"Ġprofile":6741,"Ġmut":6742,"Ġbad":6743,"Ġ..":6744,"Framework":6745,"period":6746,"čĊčĊč":6747,"GIN":6748,"DY":6749,"ä¼":6750,"ARRAY":6751,"Users":6752,"ä»¥":6753,"Ġdict":6754,"FileName":6755,"mmutable":6756,"800":6757,"provider":6758,"Ġautomatic":6759,"licate":6760,"ĠBE":6761,"ĠColor":6762,"111":6763,"Ġemit":6764,"IME":6765,"ORTED":6766,"arsh":6767,"Own":6768,"Ġ``":6769,"á»":6770,"HOST":6771,"vi":6772,"ters":6773,"Ġtags":6774,"FUNC":6775,"ĠClient":6776,"ever":6777,"FFFFFF":6778,"Ġ\"_":6779,"fire":6780,"Ġvertical":6781,"ENC":6782,"Release":6783,"('<":6784,"ArgumentException":6785,"Ġsplit":6786,"ifest":6787,"Ġlinear":6788,"Ġcellpadding":6789,"Ġalpha":6790,"Members":6791,"Lib":6792,"urnal":6793,"Ġowner":6794,"rout":6795,"ĠEd":6796,"osite":6797,"hc":6798,"ROOT":6799,"æİ":6800,"seg":6801,"blob":6802,"Ġcellspacing":6803,"rtl":6804,"Card":6805,"emit":6806,"mux":6807,"è¦":6808,"decoration":6809,"Ġer":6810,"![":6811,"Ġleast":6812,"veloper":6813,"+\"":6814,"alias":6815,"HD":6816,"(.":6817,"ios":6818,"tection":6819,"Bool":6820,"icks":6821,"Make":6822,"apos":6823,"cing":6824,"PLL":6825,"Ġcp":6826,"ĠCollection":6827,"ĠLIABILITY":6828,"Raw":6829,"ĠĠĠĠĠĠĠĠĠĠĠĠĠĠĠĠĠĠĠĠĠĠĠĠĠ":6830,"Ret":6831,"Ġfolder":6832,"ĠQgs":6833,"Cla":6834,"2011":6835,"Background":6836,"Ġbg":6837,"Ġskb":6838,"Edge":6839,"eh":6840,"ĠPage":6841,"Animation":6842,"ario":6843,"ĠVer":6844,"ĠElement":6845,"zon":6846,"lider":6847,"ĠOP":6848,"RGB":6849,"ĠGroup":6850,"ĠCOPYRIGHT":6851,"ç½":6852,"DIRECT":6853,"SPI":6854,"TF":6855,"configuration":6856,"ĠÐ²":6857,"overview":6858,"asy":6859,"ä»¶":6860,"Ġstandard":6861,"{\\":6862,"fully":6863,"ours":6864,"+=":6865,"Sm":6866,"Objects":6867,"amaz":6868,"lio":6869,"Ġeditor":6870,"esome":6871,"expand":6872,"Power":6873,"Ġsync":6874,"Ġ{},":6875,"Ġaxis":6876,"Span":6877,"Ġĉ":6878,"ĠVALIGN":6879,"Connect":6880,"Ġdid":6881,"Ġreader":6882,"Ð¾Ð²":6883,"like":6884,"INPUT":6885,"rf":6886,"Ġresources":6887,"sleep":6888,"features":6889,"2016":6890,"undef":6891,"Ġ{%":6892,"AUTH":6893,";;":6894,"ĠWindows":6895,"ĠSome":6896,"strings":6897,"ited":6898,"navigation":6899,"Binding":6900,"patch":6901,"ĠMO":6902,"Ġfprintf":6903,"Drop":6904,"BA":6905,"apis":6906,"ctr":6907,"hf":6908,"Ġvalidate":6909,"roadcast":6910,"Ġdescriptor":6911,"Ġpur":6912,"reet":6913,"Ġ?></":6914,"ĠExt":6915,"ĊĉĉĉĠĠ":6916,"ĠProcess":6917,"Ġ2013":6918,"mult":6919,"Ġrout":6920,"Ġcfg":6921,"æĸĩ":6922,"ĊĊĠĠĠĠĠĠĠĠ":6923,"dn":6924,"å½":6925,"Ġ&#":6926,"Summary":6927,"Public":6928,"Note":6929,"Login":6930,"Ġts":6931,"MR":6932,"SERVER":6933,"Ġlower":6934,"Ġkernel":6935,"'\\":6936,"Ġaudio":6937,"2000":6938,"123":6939,"Native":6940,"Term":6941,"ĠSelect":6942,"sched":6943,"Delegate":6944,"Converter":6945,"ĠSw":6946,"likely":6947,"Ġvolume":6948,"CG":6949,"Vec":6950,"Ġque":6951,"UInt":6952,"ording":6953,"Inv":6954,"gon":6955,"dash":6956,"ips":6957,"Ġmodels":6958,"Shared":6959,"labels":6960,"Ġisset":6961,"fra":6962,"cookie":6963,"Ins":6964,"dark":6965,"Ġincluding":6966,"Face":6967,"Information":6968,"SSAGE":6969,"amazon":6970,"ĊĠĠĠĠĠĠĠĠĠĠĠĠĠĠĠĠĠĠĠĠĠĠĠĠĠĠĠĠĠĠĠĠĠĠĠĠĠĠĠĠĠĠĠĠĠĠĠĠĠĠĠ":6971,"spell":6972,"filters":6973,"copyright":6974,"ĠCommand":6975,"ĠChange":6976,"frames":6977,"å®ļ":6978,"II":6979,"ĠVar":6980,"repare":6981,"wake":6982,"åı¯":6983,"Groups":6984,"Ġtimestamp":6985,"WER":6986,"FG":6987,"ana":6988,"Ġenvironment":6989,"ä¿":6990,"NEL":6991,"600":6992,"some":6993,"APP":6994,"Ġdist":6995,"ifications":6996,"CODEC":6997,"constant":6998,"Messages":6999,"Ġrate":7000,"libs":7001,"TOM":7002,"pkt":7003,"Ctrl":7004,"]</":7005,"Ġ--></":7006,"ĠControl":7007,"errno":7008,"Cl":7009,"eds":7010,"Ġdelta":7011,"Errorf":7012,"Holder":7013,"VT":7014,"rpc":7015,"toolbar":7016,"rain":7017,"loading":7018,"sem":7019,"Ġface":7020,"GROUP":7021,"writel":7022,"MMARY":7023,"ĠAUT":7024,"Ġanimation":7025,"Ġmouse":7026,"ĠFrame":7027,"DTD":7028,"ulk":7029,"Ignore":7030,"Ġms":7031,"Operator":7032,"matches":7033,")}":7034,"Ġenter":7035,"GLE":7036,"functions":7037,"vp":7038,"ragma":7039,"Ġyy":7040,"Book":7041,"Ð¿":7042,"Ġ/**<":7043,"\\-":7044,"drag":7045,"Ġ2017":7046,"Ġusage":7047,"Ġexplicit":7048,"createElement":7049,"Ġdi":7050,"oser":7051,"reserve":7052,"ROW":7053,"serial":7054,"jax":7055,"PHY":7056,"Topic":7057,"SERV":7058,"lies":7059,"danger":7060,"ryption":7061,"ĊĠĠĠĠĠĠĠĠĠĠĠĠĠĠĠĠĠĠĠĠĠĠĠĠĠĠĠĠĠĠĠĠĠĠĠĠ":7062,"Border":7063,"čĊĠĠĠĠĠĠĠĠĠĠĠĠ":7064,"Geometry":7065,"ordinate":7066,"Random":7067,"NON":7068,"ĠResult":7069,"lim":7070,"scripts":7071,"SN":7072,"Ġfactory":7073,"lv":7074,"subject":7075,"Throw":7076,"front":7077,"Ġfd":7078,"insn":7079,"Ġetc":7080,"wb":7081,"à²":7082,"sid":7083,"ĠADC":7084,"Ġadmin":7085,"uggest":7086,"machine":7087,"Ġarea":7088,"ho":7089,"uce":7090,"nof":7091,"Ġ'''":7092,"Usage":7093,"band":7094,"ĊĉĉĠĠ":7095,"phys":7096,"Ġprops":7097,"compute":7098,"Wallet":7099,"Zone":7100,"iltin":7101,"Ġwell":7102,"forEach":7103,"Notification":7104,"generic":7105,"Ġaria":7106,"Gu":7107,"Ġsepar":7108,"UNK":7109,"ĠInst":7110,"ĠSTR":7111,"Dev":7112,"Generated":7113,"allel":7114,"des":7115,"Ġnative":7116,"numerus":7117,"more":7118,"numerusform":7119,"sym":7120,"Ġà¦":7121,"Locale":7122,"ina":7123,"]),":7124,"pped":7125,"Ap":7126,"ĠPrint":7127,"Complete":7128,"strcmp":7129,"aving":7130,"ti":7131,"BT":7132,",,":7133,"ITS":7134,"ĠSend":7135,"Segment":7136,"schedule":7137,"127":7138,"twitter":7139,"ively":7140,"/.":7141,"sha":7142,"ĠLink":7143,"LOT":7144,"available":7145,"ĠØ":7146,"Rev":7147,"Columns":7148,"descriptor":7149,"ĠAbstract":7150,"price":7151,"HW":7152,"Del":7153,"defer":7154,"Ġedge":7155,"ILED":7156,"IFY":7157,"Ġsprintf":7158,"Tags":7159,"ĠIllegal":7160,"KERNEL":7161,"Ġidentifier":7162,"amount":7163,"Errors":7164,"$.":7165,"getString":7166,"initial":7167,"LOBAL":7168,"Ġpayload":7169,"star":7170,"ĠCA":7171,"lapsed":7172,"swarm":7173,"REAM":7174,"andra":7175,"ĠFind":7176,"Coord":7177,"Annotation":7178,"Ġ_.":7179,"Ġrotate":7180,"`)":7181,"library":7182,"'},":7183,"voice":7184,"ĠBuffer":7185,"è¡Į":7186,"Ġrequested":7187,"striction":7188,"gems":7189,"Î±":7190,"Ġzone":7191,"ĠOther":7192,"under":7193,"Remote":7194,"ĠAc":7195,"ike":7196,"Ġshared":7197,"usage":7198,"tax":7199,".\"\"\"":7200,"Ġsupp":7201,"ads":7202,"LED":7203,"datetime":7204,"Ġspell":7205,"nx":7206,"ä¸º":7207,"ctor":7208,"Ġcref":7209,"Ġoperations":7210,"kfree":7211,"PG":7212,"Setting":7213,"ĠServer":7214,"payload":7215,"Drag":7216,"Ġmo":7217,"MenuItem":7218,"Ġscan":7219,"MAN":7220,"ĠOptional":7221,"ĠAddress":7222,"Ġstrlen":7223,"Ġslot":7224,"DEP":7225,"ĠÑģ":7226,"Processor":7227,"peer":7228,"Ġ'./":7229,"adio":7230,"IGH":7231,"segment":7232,"Ġmanager":7233,"ĠWork":7234,"erived":7235,"ĊĊĊĠ":7236,"Quest":7237,"pic":7238,"Place":7239,"WORK":7240,"serialize":7241,"collect":7242,"Ġcommands":7243,"overlay":7244,"compile":7245,"wildcard":7246,"RUN":7247,"lua":7248,"ÃĦ":7249,"ĠGET":7250,"Ñĸ":7251,"setText":7252,"PROTO":7253,"Ġdirectly":7254,"mobile":7255,"ĠByte":7256,"lots":7257,"verify":7258,"ĠRT":7259,"Ġsig":7260,"Ġseconds":7261,"Ġ31":7262,"Ä±":7263,"CONNE":7264,"æĶ":7265,"ung":7266,"ĠQuery":7267,"åĢ":7268,"ĠSp":7269,"å¸":7270,"history":7271,"when":7272,"Validator":7273,"Ġdescribe":7274,"ventory":7275,"Ġ(__":7276,".*;":7277,"uppress":7278,"NotFound":7279,"Ġseq":7280,"Ġ(`":7281,"ĠDOM":7282,"malloc":7283,"Ġdynamic":7284,"ilation":7285,"stable":7286,"Batch":7287,"ino":7288,"ousel":7289,"ĠSUMMARY":7290,"className":7291,">\";":7292,"Ġ'$":7293,"*(":7294,"ases":7295,"RD":7296,"=\"'":7297,"Ġ28":7298,"team":7299,"Console":7300,"qt":7301,"memcpy":7302,"topic":7303,"Â»":7304,"Ġsaved":7305,"Ġunknown":7306,")+":7307,"Ġarr":7308,"assandra":7309,"ĠDec":7310,"*-":7311,"Ġcoq":7312,"Ġconstant":7313,";|":7314,"ula":7315,"Ġpl":7316,"hp":7317,"čĊčĊĉĉ":7318,"è§":7319,"Home":7320,"ued":7321,"%%%%%%%%":7322,"abilities":7323,"referred":7324,"Platform":7325,"Prev":7326,"overflow":7327,"Ġmaterial":7328,"Ġresp":7329,"wildfly":7330,"QUAL":7331,"509":7332,"cert":7333,"LOAT":7334,"times":7335,"ierarch":7336,"ordinates":7337,"125":7338,"MAKE":7339,"=\"../../../../../../../":7340,"snap":7341,";&#":7342,"Pod":7343,"Amount":7344,"Direction":7345,"Rot":7346,"idual":7347,"Depth":7348,"Ġreceive":7349,"ito":7350,"ĠIR":7351,"Ġaut":7352,"Ġbest":7353,"Ġbin":7354,"Ġpolicy":7355,"wt":7356,"fast":7357,"Owner":7358,"Req":7359,"ĠProperty":7360,"atalog":7361,"å¹":7362,"Ġinside":7363,"Ġdialog":7364,"OLDER":7365,"Ġpanel":7366,"XY":7367,"ÃĲ":7368,"springframework":7369,"Bounds":7370,"ĠSV":7371,"ĠMan":7372,"Ġprovider":7373,"æĹ¶":7374,",%":7375,"iness":7376,">;":7377,"Ġdestination":7378,"mx":7379,"Ġtsd":7380,"SOC":7381,"ĠSTART":7382,"IA":7383,"Compar":7384,"}\",":7385,"Hand":7386,"awt":7387,"SRC":7388,"mmc":7389,"ITEM":7390,"ĠTIM":7391,"ĠExample":7392,"ĥ½":7393,"Validation":7394,"persist":7395,"SPACE":7396,"Ġsegment":7397,"Ġextract":7398,"that":7399,"expression":7400,"cg":7401,"pagination":7402,"ĠSPELL":7403,"ALLOC":7404,"Ġmissing":7405,"bh":7406,"ĠÐ½":7407,"Ġendpoint":7408,"ĠSearch":7409,"chat":7410,"Environment":7411,"Cancel":7412,"æį":7413,"Ġutil":7414,"Ġruntime":7415,"2013":7416,"aver":7417,"íķ":7418,"embed":7419,"Ġmodified":7420,"Shader":7421,"ĠOnly":7422,"django":7423,"PRESS":7424,"Ġcommit":7425,"Contents":7426,"OPEN":7427,"Ġblack":7428,"CTOR":7429,"NR":7430,"Ġconstraint":7431,"Ġrt":7432,"ĠSimple":7433,"beta":7434,"Ġiterator":7435,"lying":7436,"×ķ":7437,"previous":7438,"sent":7439,"CU":7440,"Ġpriv":7441,"Ġmatching":7442,"Ġfi":7443,"refresh":7444,"processor":7445,"eff":7446,"Delay":7447,"Pane":7448,"=-=-":7449,"Â·":7450,"PRINT":7451,"å·":7452,"Ġterm":7453,"IENT":7454,"Ġ26":7455,"marsh":7456,"ĠUnit":7457,"Frames":7458,"ĠThread":7459,"Ġdat":7460,"ĠConfiguration":7461,"ĠĠĠĠĠĠĠĠĠĠĠĠĠĠĠĠĠĠĠĠĠĠĠĠĠĠĠ":7462,"ĠDEBUG":7463,"++++":7464,"Syntax":7465,"èĢ":7466,"NL":7467,"Src":7468,"ooter":7469,"ENOMEM":7470,"channels":7471,"Ġpin":7472,"8000":7473,"mv":7474,"moves":7475,"æĢ":7476,"tar":7477,"redirect":7478,"ĊĠĠĠĠĠĠĠĠĠĠĠĠĠĠĠĠĠĠĠĠĠĠĠĠĠĠĠĠĠĠĠĠĠĠĠĠĠ":7479,"(\".":7480,"memItem":7481,"repo":7482,"Ġthose":7483,"wiki":7484,"\"}":7485,"Ġinstalled":7486,"nc":7487,"ACTIVE":7488,"ea":7489,"unknown":7490,"Ġlat":7491,"got":7492,"answer":7493,"addClass":7494,"hook":7495,"SIGN":7496,"ĠCL":7497,"olved":7498,"eded":7499,"ĠCSS":7500,"Ġflex":7501,"TT":7502,"Ġtrace":7503,"Ġ2011":7504,")',":7505,"world":7506,"UA":7507,"Ġprimary":7508,"IBUT":7509,"Bus":7510,"Slot":7511,"ĠAssembly":7512,"Ġroute":7513,"OUTPUT":7514,"Î¿":7515,"nv":7516,"actual":7517,"pcm":7518,"REA":7519,"Ġnothing":7520,"ĠMax":7521,"čĊĉčĊ":7522,"Ġstats":7523,"ĠChar":7524,"Ġ128":7525,"swap":7526,"ifact":7527,"Ġ27":7528,"/>.":7529,"ctree":7530,"viewport":7531,"Implement":7532,"ĠFILE":7533,"Ġfetch":7534,"irr":7535,"ĠTEST":7536,"outer":7537,"Ġ2016":7538,"cos":7539,"alog":7540,"éĹ":7541,"RESET":7542,"ĠFilter":7543,"Ð°ÑĤ":7544,"Ġlogging":7545,"SEC":7546,"Ġworld":7547,"-----":7548,"MESSAGE":7549,"Ġ([":7550,"GER":7551,"execut":7552,"lx":7553,"ife":7554,"Begin":7555,"âĶĢ":7556,"atest":7557,"005":7558,"ĠUtil":7559,"ĠDI":7560,"lette":7561,"Scan":7562,"ĠOp":7563,"Ġallows":7564,"getType":7565,"udit":7566,"Instruction":7567,"History":7568,"////////////////////////////////////////////////////////////////":7569,"Now":7570,";|&":7571,"localhost":7572,"Google":7573,"150":7574,"comments":7575,"argument":7576,"Failure":7577,"Ġnever":7578,"opacity":7579,"black":7580,"Ġyear":7581,"Ġperiod":7582,"loyment":7583,"Ġupper":7584,"bucket":7585,"ales":7586,"Ġfoo":7587,"nn":7588,"Ġtimes":7589,"Accept":7590,"Ġ80":7591,"ables":7592,"lc":7593,"Ġgtk":7594,"ITLE":7595,"rdev":7596,"rules":7597,"ARK":7598,"mysql":7599,"Month":7600,"Resolver":7601,"Ġrules":7602,"Ð·":7603,"ji":7604,"catch":7605,"2017":7606,"ĠDelete":7607,"ĠAC":7608,"samp":7609,"ĠOS":7610,"HS":7611,"aker":7612,"Timestamp":7613,"ÃĬ":7614,"eno":7615,"ĠPHP":7616,"ĠUINT":7617,"Ġ\")":7618,"Ġ(!$":7619,"ibling":7620,"Ġliteral":7621,"ĠThere":7622,"Ġsynchron":7623,"Ġmade":7624,"Ġplan":7625,"Ġappear":7626,"Ġcompare":7627,"æŃ":7628,"GU":7629,"Navigation":7630,"Year":7631,"Ġpending":7632,"ĠReserved":7633,"Ġ2012":7634,"EGER":7635,"pf":7636,"sun":7637,"dispatch":7638,"-%":7639,"tun":7640,"regex":7641,"Lookup":7642,"igration":7643,"Contains":7644,"bum":7645,"ĠContent":7646,"popup":7647,"('./":7648,"[(":7649,"Ġduration":7650,"ĊĉĉĉĉĠĠĠ":7651,"Cloud":7652,"Partition":7653,"Ġred":7654,"Ġvir":7655,"ArrayList":7656,"responsive":7657,"Controls":7658,"ĠReference":7659,"ĠCustom":7660,"POWER":7661,"ĠInterrupt":7662,"Ġprevent":7663,"ĊĉĉĉĠĠĠĠ":7664,"Ġsummary":7665,"Ġkind":7666,"Ġirq":7667,"::_":7668,"Diff":7669,"redicate":7670,"pict":7671,"CHANGE":7672,"PCI":7673,"about":7674,"tim":7675,"Ġplaceholder":7676,"lict":7677,"xl":7678,"Ġtile":7679,"ĠMicrosoft":7680,"Ġcalling":7681,"indent":7682,"*>":7683,"POINT":7684,"ĠčĊ":7685,"RST":7686,"Loop":7687,"Ġless":7688,"Ġinterval":7689,"Split":7690,"istic":7691,"Execution":7692,"Exists":7693,"sin":7694,"Material":7695,"encoding":7696,"(['":7697,"velopment":7698,"×Ļ":7699,"Mapper":7700,"prite":7701,"posts":7702,"Ġesc":7703,"les":7704,"Poly":7705,"ĠĊĉĉ":7706,"cls":7707,"Ġnecessary":7708,"LP":7709,"Ġclone":7710,"oston":7711,"NA":7712,"ĠGO":7713,"lev":7714,"Ġcategory":7715,"Graphics":7716,"Ġusername":7717,"HEADER":7718,"\">&#":7719,"native":7720,"Ġdistance":7721,"Ġautomatically":7722,"REC":7723,"ĠComponent":7724,"Ġrequires":7725,"correct":7726,"Bucket":7727,"Fixed":7728,"ĠLong":7729,"controls":7730,"rand":7731,"eth":7732,"sess":7733,"Arr":7734,"ĠIter":7735,"udent":7736,"awesome":7737,"Disp":7738,"separator":7739,"Separator":7740,"ĠLocal":7741,"mf":7742,"Ġ\"[":7743,"Ġ\"+":7744,"urb":7745,"\">(":7746,"ĠParse":7747,"Ġmonth":7748,"Ġengine":7749,"Strategy":7750,"PREFIX":7751,"ENTER":7752,"sta":7753,"Chart":7754,"VIE":7755,"Ġpartition":7756,"react":7757,"ĠHAVE":7758,"ivers":7759,"Servlet":7760,"AU":7761,"Ġorigin":7762,"hex":7763,"TableRow":7764,"ARM":7765,"_[":7766,"cred":7767,"ĠResponse":7768,"UNIT":7769,"themes":7770,"ĠContext":7771,"ffers":7772,"Ġcopies":7773,")-":7774,"\\_":7775,"------":7776,"ĠPM":7777,"CONT":7778,"widgets":7779,"Encoding":7780,"Ġ51":7781,"ÐµÑĢ":7782,"ĠDouble":7783,"facebook":7784,"*,":7785,"MSM":7786,"cx":7787,"Ġproblem":7788,"Ġlookup":7789,"Fore":7790,"folio":7791,"MUX":7792,"QUE":7793,"ĠGe":7794,"Ġdie":7795,"æĮ":7796,"ighb":7797,"alyt":7798,"cha":7799,"transp":7800,"writer":7801,"Fill":7802,"allery":7803,"=\"{{":7804,"Peer":7805,"cogn":7806,"ĠPlease":7807,"coped":7808,"hem":7809,"è¦ģ":7810,"Ġproper":7811,"Ġboost":7812,"OLD":7813,"ADDING":7814,"Ġrx":7815,"ridge":7816,"Ġcontact":7817,"lare":7818,"WARNING":7819,"uffix":7820,"wall":7821,"ĠCreates":7822,"Ġ(-":7823,"validation":7824,"ĠSO":7825,"à¹":7826,"Ġ*);":7827,"ĠMin":7828,"Verify":7829,"Ġjoin":7830,"LOCAL":7831,"Trigger":7832,"OutputStream":7833,"POL":7834,"Ġresolve":7835,"GLOBAL":7836,"é¡":7837,"../../../../":7838,"Ġnavbar":7839,"valuate":7840,"ëĭ":7841,"Deprecated":7842,"Ġdt":7843,"abc":7844,"Ġ$('#":7845,"CLE":7846,"Â¥":7847,"Ġgrant":7848,"'].":7849,"Ġ<-":7850,"Ã¨":7851,"DISABLE":7852,"mr":7853,"LEFT":7854,"ĠInitialize":7855,"structure":7856,"RETURN":7857,"ĠBoston":7858,"Ġdescri":7859,"Ġ```":7860,"ially":7861,"CORE":7862,"locity":7863,"plus":7864,"Ġlight":7865,"FAILED":7866,"Ctx":7867,"Ġcor":7868,"'m":7869,"Â¼":7870,"å¯¹":7871,"'d":7872,"Replace":7873,"1234":7874,"\"/":7875,"Îµ":7876,"Mov":7877,"BD":7878,"Ġnote":7879,"SYNC":7880,"Ġproc":7881,"/****************************************************************************":7882,"}'":7883,"??":7884,"ĠclassName":7885,"ĠLL":7886,"ĠMIT":7887,"textarea":7888,"frag":7889,"Qual":7890,"Ġ\"${":7891,"Tuple":7892,"Virtual":7893,"getMessage":7894,"Ġstatement":7895,"ĠâĢ":7896,"ÂĤ":7897,"192":7898,"ĠModule":7899,"Arch":7900,"pragma":7901,"generator":7902,"craft":7903,"Ġsignature":7904,"Ġplease":7905,"ĠInvalid":7906,"interr":7907,"Ġut":7908,"gg":7909,"ones":7910,"ĊĉĉĠĠĠĠĠĠ":7911,"Ġbatch":7912,"vanced":7913,"Arguments":7914,"Ġ199":7915,"thead":7916,"PAD":7917,"amma":7918,"Ġdisk":7919,"CLU":7920,"Variant":7921,"ran":7922,"Ġdiag":7923,"Go":7924,"Ġdepth":7925,"ioctl":7926,"Ġpartic":7927,"Serializer":7928,"-$(":7929,"ĠPort":7930,"Ġcorresponding":7931,"Ġ){":7932,"ĠĠĠĠĠĠĠĠĠĠĠĠĠĠĠĠĠĠĠĠĠĠĠĠĠĠ":7933,"Decimal":7934,"ĊĉĉĉĉĠ":7935,"CID":7936,"gers":7937,"Light":7938,"Ġparsed":7939,"CONF":7940,"Ġcompute":7941,"110":7942,"')->":7943,"Sum":7944,"Ġev":7945,"Attach":7946,"Ġassume":7947,"SPAC":7948,"Same":7949,"zure":7950,"activity":7951,"ĠEV":7952,"eval":7953,"Ġ75":7954,"trfs":7955,"Ġtbody":7956,"Ġcar":7957,"Ġmaster":7958,"Vert":7959,"Ġcert":7960,"claimer":7961,"Ġcomponents":7962,"pat":7963,"Ġjs":7964,"ocation":7965,"=[":7966,"Ġmag":7967,"ĠME":7968,"Nullable":7969,"External":7970,"(\"[":7971,"\\'":7972,"transport":7973,".)":7974,"Site":7975,"oh":7976,"partition":7977,"ountry":7978,"country":7979,"Ġwriter":7980,"Character":7981,"ĠLay":7982,"120":7983,"Creature":7984,"caps":7985,"malink":7986,"Ġsn":7987,"ĠThese":7988,"Ġgood":7989,"NOWN":7990,"interrupt":7991,"upper":7992,"chr":7993,"reason":7994,"ĠSER":7995,"TOP":7996,"ðŁ":7997,"ĊĉĉĠĠĠĠ":7998,"ISING":7999,"ĠMain":8000,"diag":8001,"toBe":8002,"VALID":8003,"Big":8004,"cam":8005,"XXXX":8006,"/</":8007,"Ġtheme":8008,"ĠPO":8009,"Ġcases":8010,"PADDING":8011,"gid":8012,"ĠFe":8013,"%\"><":8014,"ĠURI":8015,"ĠLine":8016,"STREAM":8017,"Ġserial":8018,"cout":8019,"ĠINCLUDING":8020,"Ġ500":8021,"Ġ!(":8022,"Upload":8023,"Overview":8024,"permission":8025,"orary":8026,"ĠDAMAGES":8027,"FILTER":8028,"Ġcover":8029,"Ġchecked":8030,"ENS":8031,"Chunk":8032,"<<<<":8033,"Ġbasic":8034,"flash":8035,"Side":8036,"aking":8037,"ãĤĴ":8038,"Ġaddresses":8039,"Ġturn":8040,"Monitor":8041,"ĠPROVIDE":8042,"CHANNEL":8043,"Distance":8044,"Library":8045,"ĠPython":8046,"/'":8047,"Ġfragment":8048,"ĠStream":8049,"Ġexports":8050,"ç±":8051,"ond":8052,"Ġdup":8053,"probe":8054,"lb":8055,"Ġda":8056,"getAttribute":8057,"Ġ/></":8058,"Fatal":8059,"person":8060,"room":8061,"logging":8062,"lasticsearch":8063,"ĠLogger":8064,"Ġ'')":8065,"Ġ'@":8066,"camera":8067,"Transport":8068,"Ġleg":8069,"oi":8070,"bio":8071,"Ġfeatures":8072,"}</":8073,"#{":8074,"Ġrelated":8075,"CEPT":8076,"Center":8077,"Ã³n":8078,"Mesh":8079,"ä¸ĭ":8080,"Ġmm":8081,"Ġrespon":8082,"DECL":8083,"éĻ":8084,"QString":8085,"ĠMock":8086,"coming":8087,"relative":8088,"Ġcc":8089,"pix":8090,"Kit":8091,"branch":8092,"iw":8093,">%":8094,"Marker":8095,"Ġinner":8096,"ĠPUBLIC":8097,"Self":8098,"CACHE":8099,"Ġsecurity":8100,"Ġ33":8101,"Scene":8102,"iation":8103,"ICK":8104,"Ġvalidation":8105,"ĠSize":8106,"EMP":8107,"ĊĉĉĉĉĠĠ":8108,"ĠĊĠĠĠĠĠĠĠĠĠĠĠĠĠĠĠĠĠĠ":8109,"WIDTH":8110,"Ġlogin":8111,"ĠJson":8112,"Strip":8113,"commons":8114,"stdlib":8115,"altColor":8116,"Ġvisit":8117,"Pipe":8118,"Ã¸":8119,"Ġannot":8120,"rw":8121,"Atom":8122,"ĠMon":8123,"ç¬":8124,"gtk":8125,"TERN":8126,"ĠSto":8127,"Rest":8128,"ĠApplication":8129,"Hub":8130,"Ġdw":8131,"ä½¿":8132,"orig":8133,"Ġsomething":8134,"qp":8135,"äºĨ":8136,"xxx":8137,"Ġ-*-":8138,"dy":8139,"complex":8140,"Angle":8141,"TON":8142,"Ġfinally":8143,"ASK":8144,"anks":8145,"Wr":8146,"Ġexpr":8147,"priority":8148,"FACE":8149,"rintf":8150,"Setup":8151,">()":8152,"çī":8153,"Emit":8154,"brid":8155,"dentry":8156,"Ġmiddle":8157,"Master":8158,"Persist":8159,"ij":8160,"currency":8161,"čĊĉĉĉĉĉĉĉ":8162,"parts":8163,"Ġmodules":8164,"//----------------------------------------------------------------":8165,"Identity":8166,">(<":8167,"priate":8168,"codes":8169,"fav":8170,"router":8171,"Ãº":8172,"/%":8173,"250":8174,"DESC":8175,"ism":8176,"Person":8177,"middle":8178,"¦Ĥ":8179,"TRA":8180,"Mgr":8181,"Ġrest":8182,"COMMAND":8183,"memset":8184,"lode":8185,"endpoint":8186,"/)":8187,"rypto":8188,"ĠPROVIDED":8189,"ek":8190,"ilar":8191,"::$":8192,"ENABLED":8193,"Ġ2010":8194,"getClass":8195,"Factor":8196,"suspend":8197,"Ġendl":8198,"Ġdom":8199,"TIMEOUT":8200,"serif":8201,"Ġargv":8202,"EXP":8203,"goog":8204,"ĠCore":8205,"company":8206,"Theme":8207,"ONLY":8208,"Dom":8209,"ioc":8210,"ãĥ³":8211,"Zero":8212,"()\">":8213,"!(":8214,"allowed":8215,"Ġdisp":8216,"rp":8217,"icator":8218,"dynamic":8219,"ĠConvert":8220,"ĠBORDER":8221,"ĠSHALL":8222,"periment":8223,"Ġcause":8224,"backend":8225,"zoom":8226,"Â¶":8227,"Ġmean":8228,"rtc":8229,"GUI":8230,"most":8231,"asing":8232,"Ġkw":8233,"definition":8234,"fficient":8235,"sBy":8236,"RENT":8237,"SESSION":8238,"Ġprocessing":8239,"Switch":8240,"MOVE":8241,"INGS":8242,"wq":8243,"ĠPAGE":8244,"NEW":8245,"Ġpriority":8246,"Expected":8247,"Should":8248,"Ãª":8249,"Inner":8250,"clip":8251,"EB":8252,"poll":8253,"CAL":8254,"concat":8255,"Ġenc":8256,"Ġ1024":8257,"cursive":8258,"cipient":8259,"Ġgre":8260,"Att":8261,"ENV":8262,"Ġbold":8263,"Dependency":8264,"Ġloading":8265,"Ã£o":8266,"ORMAL":8267,"ĠGFP":8268,"Cannot":8269,"AUTO":8270,"33333333":8271,"fluid":8272,"Missing":8273,"//#":8274,"tables":8275,"locked":8276,"FROM":8277,"JECT":8278,"ĠDEF":8279,"ä¾":8280,"cleanup":8281,"Ġactiv":8282,"ĠFix":8283,"ADC":8284,"substr":8285,"Ġisn":8286,"SPACING":8287,"iling":8288,"%\">":8289,"members":8290,"ĠHow":8291,"Priority":8292,"losure":8293,"andidate":8294,"ĠClasses":8295,"ç±»":8296,"ĠTag":8297,"emu":8298,"Capture":8299,"ĊĉĉĉĠĠĠĠĠĠ":8300,"ADDRESS":8301,"ĠDateTime":8302,"substring":8303,"ãģĻ":8304,"Ġconstruct":8305,"Ġdeleted":8306,"FX":8307,"Actions":8308,"binary":8309,"'><":8310,"Execute":8311,"usic":8312,"Ġ_(\"":8313,"180":8314,"tor":8315,"Ġarch":8316,"Tools":8317,"Anim":8318,"Ġregard":8319,"lint":8320,"dhd":8321,"ena":8322,"carousel":8323,"Canvas":8324,"ĠRuntime":8325,"OTTOM":8326,"operation":8327,"Ġonclick":8328,"Ġattach":8329,"Period":8330,"Ġboot":8331,"ĠCONTRACT":8332,"=\"#\">":8333,"ĠSupport":8334,"Created":8335,"Ġcalcul":8336,"Promise":8337,"Ġgroups":8338,"ĠVM":8339,"imize":8340,"ARB":8341,"Standard":8342,"Ãİ":8343,"Dep":8344,"ctrine":8345,"Ġuri":8346,"Ġdependencies":8347,"factor":8348,"FLOAT":8349,"unlikely":8350,"ĊĠĠĠĠĠĠĠĠĠĠĠĠĠĠĠĠĠĠĠĠĠĠĠĠĠĠĠĠĠĠĠĠĠĠĠĠĠĠ":8351,"Checked":8352,"poly":8353,"Ġparts":8354,"Ġbig":8355,"ĠFIX":8356,"Ġitself":8357,"ko":8358,"alytics":8359,"ĠLIABLE":8360,"ierarchy":8361,"ante":8362,"gregate":8363,"anization":8364,"ernet":8365,"Ġgoogle":8366,"Dynamic":8367,"dummy":8368,"fit":8369,"Ã½":8370,"Ġcompiler":8371,"ĠĊĠĠĠĠĠ":8372,"saved":8373,"buttons":8374,"Optional":8375,"WISE":8376,"CN":8377,"Ġrepresentation":8378,"Ġtransfer":8379,"Guid":8380,"Ġsender":8381,"Ġisinstance":8382,"æ³ķ":8383,"alent":8384,"Ġexecution":8385,"Ġcs":8386,"Â±":8387,"\">'":8388,"Aura":8389,"Uint":8390,"Ġactually":8391,"Ġmulti":8392,"åī":8393,"ĠSUB":8394,"absolute":8395,"Ġflow":8396,"Ġdue":8397,"åĪ°":8398,"Proc":8399,"ializable":8400,"defaults":8401,"smart":8402,"INCLUDING":8403,"PASS":8404,"ĊĠĠĠĠĠĠĊĠĠĠĠĠ":8405,"ication":8406,"ised":8407,"ĠGenerated":8408,"TableRowColor":8409,"Bin":8410,"ĊĉĠĠĠĠĠĠ":8411,"Ġrs":8412,"Supported":8413,"ention":8414,"DELETE":8415,"DataType":8416,"Ġpack":8417,"ĠARISING":8418,"DRV":8419,"running":8420,"Ġstarting":8421,"acl":8422,"ĠClear":8423,"Ġgp":8424,"cached":8425,"Ġdisclaimer":8426,"-------":8427,"HETHER":8428,"RATE":8429,"atter":8430,"Fact":8431,"attle":8432,"Ca":8433,"hu":8434,"notification":8435,"ĠAny":8436,"Push":8437,"ä¸Ģä¸ª":8438,"ĠUs":8439,"inu":8440,"phrase":8441,"Win":8442,"ERRUP":8443,"calc":8444,"initialize":8445,"netdev":8446,"*>(":8447,"Convert":8448,"Ġbug":8449,"æĸ¹":8450,"Mut":8451,"=\"..":8452,"sWith":8453,"lour":8454,"ĠSW":8455,"Ġpartial":8456,"Blog":8457,"antity":8458,"kg":8459,"men":8460,"resume":8461,"ĠCR":8462,"Ġ\"\")":8463,"ĠTool":8464,"Ġindent":8465,"related":8466,"Ġtp":8467,"Ġmembers":8468,"CONST":8469,"ĠassertTrue":8470,"ĠValid":8471,"Ġglyph":8472,"sktop":8473,"Done":8474,"aN":8475,"Ġcurr":8476,"è½":8477,"TREE":8478,"termine":8479,"fake":8480,"@@":8481,"Ġwrap":8482,"]));":8483,"which":8484,"FEATURE":8485,"secondary":8486,"panded":8487,"constraint":8488,"ĠPost":8489,"toctree":8490,"Ter":8491,"idle":8492,"ny":8493,"tensor":8494,"ĠWHETHER":8495,"Ġhelper":8496,"ĠEXPRESS":8497,"literal":8498,"preview":8499,"Ġconsider":8500,"700":8501,"Consumer":8502,"percent":8503,"...)":8504,"\"+":8505,"Ġnr":8506,"Ġ256":8507,"Ġht":8508,"Ġnumbers":8509,"Ġ*(":8510,"ĠPORT":8511,"Signature":8512,"Ġworks":8513,"incip":8514,"Ġtuple":8515,"ople":8516,"Ġ29":8517,"Rules":8518,"Ġround":8519,"iny":8520,"binding":8521,"ned":8522,"cassandra":8523,"Ġcaller":8524,"Ġdig":8525,"forward":8526,"Ġcached":8527,"recv":8528,"ä¸Ĭ":8529,"=&":8530,"Ġmmc":8531,"ĠAss":8532,"-------------":8533,"Ġhappen":8534,"-----------":8535,"Ġcleanup":8536,"Uses":8537,"Ġtesting":8538,"relation":8539,"dividual":8540,"etc":8541,"override":8542,"GC":8543,"Combo":8544,"Declaration":8545,"Modifier":8546,"âĸ":8547,"updated":8548,"FW":8549,"ĠMark":8550,"âĢĻ":8551,"den":8552,"Ġqual":8553,"uv":8554,"ĊĉĉĠĠĠĠĠ":8555,"VIEW":8556,"aps":8557,"leaf":8558,"ĠERROR":8559,"ILL":8560,"ership":8561,"éĿ":8562,"Ġinstances":8563,"HashMap":8564,"Alpha":8565,"Ġdr":8566,"Ġ\"</":8567,"ĠDim":8568,"à¤¾":8569,"ç§":8570,"Ġsafe":8571,"Ġcompar":8572,"Ġissue":8573,"ograph":8574,"When":8575,"CHED":8576,"Download":8577,"lems":8578,"BITS":8579,"ĠNV":8580,"ĊĉĉĉĠĠĠĠĠ":8581,"Exit":8582,"ably":8583,"tb":8584,"USH":8585,"Mail":8586,"è¾":8587,"haser":8588,"Snapshot":8589,"scr":8590,"è¿Ļ":8591,"ĠÐ´":8592,"tre":8593,"ifo":8594,"Modified":8595,"irror":8596,"fieldset":8597,"para":8598,"ĠReset":8599,")},":8600,"ĠSPI":8601,"Ġrepository":8602,"PRI":8603,"Ġretval":8604,"ĠColumn":8605,"ĠJS":8606,"Ġprovides":8607,"fm":8608,"åİ":8609,"EEE":8610,"ALIGN":8611,"VOL":8612,"ĠPackage":8613,"SING":8614,"Ġlarge":8615,"specific":8616,"Ø³":8617,"texture":8618,"×ķ×":8619,"Dict":8620,"virt":8621,"Rec":8622,"ĠUART":8623,"Ġpull":8624,"vg":8625,"HI":8626,"Observer":8627,"mn":8628,"ĠCELLSPACING":8629,"ĠRedistributions":8630,"upal":8631,"UV":8632,"ĠCS":8633,"ĠCELLPADDING":8634,"ENU":8635,"INSTANCE":8636,"medium":8637,"Ġimages":8638,"monitor":8639,"Ġps":8640,"marker":8641,"setAttribute":8642,"Ġfuture":8643,"Bottom":8644,"=====":8645,"fprintf":8646,"Ġpc":8647,"ĠPAR":8648,"WAIT":8649,"+'":8650,"ĠAndroid":8651,"Compiler":8652,"endl":8653,"bx":8654,"Ġdevices":8655,"ÏĦ":8656,"Ġ35":8657,"<>();":8658,"une":8659,"noframe":8660,"docker":8661,"configure":8662,"aret":8663,"ĠGu":8664,"mazon":8665,"Ġminimum":8666,"Â³":8667,"uel":8668,"Ãĸ":8669,"nel":8670,"ĠHashMap":8671,":-":8672,"Press":8673,"Ġcast":8674,"Ġyield":8675,"ĉĉĉĉĉĉ":8676,"Ġtcp":8677,"ĠIL":8678,"Ġsy":8679,"LEMENT":8680,"à¥į":8681,"Dispatch":8682,"ĠÐº":8683,"wbr":8684,"Ġutf":8685,"ĠBSD":8686,"âĶĢâĶĢ":8687,"ĠBIT":8688,"bas":8689,"++]":8690,"BOX":8691,"elif":8692,"=\"..&#":8693,"FILL":8694,"syn":8695,"Ġxmlns":8696,"inet":8697,"Ġregistered":8698,"Ġenumer":8699,"ipv":8700,"mdp":8701,"MIT":8702,"Speed":8703,"Activ":8704,"atibility":8705,"Ġinset":8706,"Ġalert":8707,"iframe":8708,"Other":8709,"Ġsupports":8710,"ĠSec":8711,"scene":8712,"Ġversions":8713,"ĠSPECI":8714,"lij":8715,"Future":8716,"à¯":8717,"Ġden":8718,"viders":8719,"AMETER":8720,"picture":8721,"ĠOTHERWISE":8722,"anim":8723,"bre":8724,"ĠDebug":8725,"ĠPlayer":8726,"apps":8727,"Series":8728,"å¦Ĥ":8729,"Ġseg":8730,"Ġdatetime":8731,"Ġwaves":8732,"ology":8733,"ancell":8734,"brand":8735,"ĠGame":8736,"ĊĉĉĉĉĉĉĉĊĉĉĉĉĉĉ":8737,"Bitmap":8738,"Ġdot":8739,"Tasks":8740,"Ġbranch":8741,"Sim":8742,"\"])":8743,"have":8744,"Dr":8745,"$/":8746,"categories":8747,"poi":8748,"Ġwp":8749,"=\"#\"":8750,"CSS":8751,"00000001":8752,"dtd":8753,"Ġ90":8754,"Ġ300":8755,"Ġpaths":8756,",.":8757,"ĠĠĠĠĠĠĠĠĠĠĠĠĠĠĠĠĠĠĠĠĠĠĠĠĠĠĠĠĠ":8758,"Ġll":8759,"()[":8760,"chrome":8761,"Ġwin":8762,"WITH":8763,"ĠAccess":8764,"Ġdestroy":8765,"SF":8766,"ounce":8767,"Ġpub":8768,"AAAA":8769,"Ġpeer":8770,"ROP":8771,"LowerCase":8772,"PROPER":8773,"Camera":8774,"---------":8775,"land":8776,"Ġagainst":8777,"ĠTORT":8778,"Relation":8779,"Ġrelation":8780,"Ġenough":8781,"guid":8782,"sprintf":8783,"Ġep":8784,"Ġpid":8785,"Ġvery":8786,"ĠVis":8787,"ĠAuto":8788,"CLO":8789,"tage":8790,"Available":8791,"='#":8792,"Could":8793,"fonts":8794,"TOOL":8795,"Ġredirect":8796,"Tensor":8797,"INTR":8798,"iagnostic":8799,"Ġprior":8800,"Ġcancel":8801,"Extensions":8802,"Ġallocate":8803,"234":8804,"placeholder":8805,"Ġ*=":8806,")){":8807,"Ġtw":8808,"Ġadapter":8809,"train":8810,"HANDLE":8811,"tg":8812,"Dat":8813,"å±":8814,"ements":8815,"Ġpol":8816,"1024":8817,"threshold":8818,"numeric":8819,"/{":8820,"listener":8821,"Â°":8822,"Watch":8823,"orth":8824,"Ġsa":8825,"charset":8826,"ãģĹ":8827,"apon":8828,"Ġam":8829,"gov":8830,"Ġtre":8831,"extensions":8832,"Delta":8833,"Ġwrong":8834,"Ġsz":8835,"Im":8836,"MUL":8837,"IconSuccess":8838,"Ġrhs":8839,"ç¨":8840,"HIGH":8841,"Head":8842,"appendChild":8843,"stride":8844,"ĊĠĠĠĠĠĠĠĠĠĠĠĠĠĠĠĠĠĠĠĠĠĠĠĠĠĠĠĠĠĠĠĠĠĠĠĠĠĠĠĠĠĠĠĠĠĠĠĠĠĠĠĠĠĠĠ":8845,"ores":8846,"ÙĬ":8847,"ĠRef":8848,"Calendar":8849,"Ġnamed":8850,"ĠAP":8851,"za":8852,"PEG":8853,"Ġfrag":8854,"WEB":8855,"Machine":8856,"Ġax":8857,"vertex":8858,"264":8859,"ĠRTC":8860,"Â£":8861,"two":8862,"losing":8863,"zen":8864,"SUPP":8865,"Ġignored":8866,"Functions":8867,"ĠZend":8868,"Ġdownload":8869,"ĠBack":8870,"valueOf":8871,"Metrics":8872,"SED":8873,"standard":8874,"coord":8875,"ĊĊĊĠĠĠĠĠĠĠ":8876,"Ġalias":8877,"fragment":8878,"Operand":8879,"scala":8880,"Ġ\"(":8881,"ki":8882,"Ġdefaults":8883,"Schedule":8884,"Dictionary":8885,"ĠPyObject":8886,"TIMER":8887,"activate":8888,"Const":8889,"104":8890,"\"><?":8891,"parentNode":8892,"Ġimmediate":8893,"ilevel":8894,"IconSuccessEncoded":8895,"ERNAL":8896,"ĠGraph":8897,"Destroy":8898,"(\"<":8899,"TCP":8900,"Alias":8901,"series":8902,"]).":8903,"bitmap":8904,"AIN":8905,"Ġlocale":8906,"irc":8907,"Touch":8908,"Ġcourse":8909,"UART":8910,"Ġ\":":8911,"\\.":8912,"ĠARRAY":8913,"Tip":8914,"illis":8915,"ĠChannel":8916,"ĠTX":8917,"atype":8918,"ĠBASE":8919,"Ġpci":8920,"WL":8921,"thr":8922,"Weight":8923,"ĠĠĠĠĠĠĠĠĠĠĠĠĠĠĠĠĠĠĠĠĠĠĠĠĠĠĠĠ":8924,"Ð¾ÑĢ":8925,"orient":8926,"transfer":8927,"crumb":8928,"PRIV":8929,"ducer":8930,"layers":8931,"èĩ":8932,"Ġ========":8933,"abbr":8934,"Ġactions":8935,"ye":8936,"extract":8937,"Seq":8938,"Ġhistory":8939,"GT":8940,"adoc":8941,"ĠTOP":8942,"Loading":8943,"SUPPORT":8944,"amel":8945,"atis":8946,"Ġalgorithm":8947,";\\":8948,"ĠHOLDER":8949,"Ġpod":8950,"Ġadjust":8951,"crease":8952,"paper":8953,"(()":8954,"Extra":8955,"Hz":8956,"STOP":8957,"Ġready":8958,"onical":8959,"Ġquot":8960,"2012":8961,"LONG":8962,"scape":8963,"ĠDevice":8964,"Ġattrs":8965,"Ġhide":8966,"VIS":8967,"alan":8968,"Scalar":8969,"shell":8970,"ĠCreated":8971,"BOOL":8972,"Transition":8973,"Ġtasks":8974,"IMAGE":8975,"pur":8976,"stub":8977,"ÑĪ":8978,"Ġreject":8979,"olate":8980,"deb":8981,"vma":8982,"heap":8983,"Ġmail":8984,"ysical":8985,"ĠSign":8986,"ENDOR":8987,"iom":8988,"LANG":8989,"NUMBER":8990,"Ġdetail":8991,"ĠÐ¸":8992,"irmware":8993,"diction":8994,"Ġpara":8995,"Ġwrapper":8996,"Visitor":8997,"Ġdeal":8998,"Origin":8999,"ality":9000,"Filename":9001,"tvb":9002,"Commit":9003,"Ãĥ":9004,"Ġchecks":9005,"mul":9006,"general":9007,"Ġreading":9008,"Bad":9009,"Org":9010,"oring":9011,"ORE":9012,"Ġaff":9013,"LER":9014,"badge":9015,"Tw":9016,"oton":9017,"connected":9018,"Ġvolatile":9019,"Include":9020,"Break":9021,"Codec":9022,"ensitive":9023,"Ġ55":9024,"Fetch":9025,"Ġins":9026,"åĪĨ":9027,"Ġil":9028,"ini":9029,"stage":9030,"sdk":9031,"Ġlp":9032,"Ġimplemented":9033,"rier":9034,"ç½®":9035,"reverse":9036,"Ċĉĉĉĉĉĉĉĉĉĉĉĉ":9037,"0002":9038,"Ġclosed":9039,"Ġdump":9040,"Ġdetermine":9041,"Ġbucket":9042,"NORMAL":9043,"Ġtables":9044,"ĠWith":9045,"ĠCAN":9046,"Ġ**/":9047,"qq":9048,"edu":9049,"Writ":9050,"Ġbehavior":9051,"Ġappropriate":9052,"æĪĲ":9053,"gmail":9054,"tpl":9055,"ulp":9056,"secret":9057,"inverse":9058,"åĴ":9059,"chno":9060,"CLIENT":9061,"186":9062,"GroupName":9063,"MON":9064,"Ð¾Ð»":9065,"aven":9066,"Ġforward":9067,"tuple":9068,"Ġtouch":9069,"Ġseries":9070,"xffffff":9071,"avatar":9072,"Ġgit":9073,"2018":9074,"Ġ\"-//":9075,"ä½¿çĶ¨":9076,"199":9077,"Features":9078,"lision":9079,"čĊĠĠĠĠĠĠĠĠĠĠĠĠĠ":9080,"VIDEO":9081,"Anchor":9082,"Î¹":9083,"ĠCurrent":9084,"TITLE":9085,"ongo":9086,"cid":9087,"ATT":9088,"Ġgeneric":9089,"ĠPri":9090,"æį®":9091,"Score":9092,"Ġpt":9093,"Ġ48":9094,"Ġ../":9095,"Ġinvok":9096,"Accessor":9097,"ÑĨ":9098,"paths":9099,"************************":9100,"'ll":9101,"Ġhw":9102,"Gtk":9103,"'''":9104,"ICT":9105,"Ð¹":9106,"Elem":9107,"]{":9108,"mot":9109,"1111":9110,"ĠOb":9111,"Ġforms":9112,"worker":9113,"rgb":9114,"Zoom":9115,"hib":9116,"ĊĊĉĉĉĉĉ":9117,"Ready":9118,"Ġapilevel":9119,")=":9120,"è¡¨":9121,"à¦¾":9122,"vet":9123,"geo":9124,"ĠRender":9125,"Ġhandling":9126,"MACH":9127,"sizing":9128,"SHA":9129,"ĠToken":9130,"Ġreply":9131,"renderer":9132,"rial":9133,"mnt":9134,"Â´":9135,"NI":9136,"aux":9137,"ACCESS":9138,"ISTER":9139,"ĠRights":9140,"mine":9141,"Ġsi":9142,"except":9143,"REFER":9144,"+-":9145,"Ġboard":9146,"Surface":9147,"Ġchart":9148,"celer":9149,"EQUAL":9150,"Matcher":9151,"ports":9152,"Ġpm":9153,"social":9154,"styles":9155,"ĠEntity":9156,"cols":9157,"dirname":9158,"googleapis":9159,"Ġsuccessfully":9160,"ĠĠĠĠĠĠĠĠĠĠĠĠĠĠĠĠĠĠĠĠĠĠĠĠĠĠĠĠĠĠĠ":9161,"demo":9162,"inject":9163,"tasks":9164,"Tex":9165,"intr":9166,"GP":9167,"ulture":9168,"NameLink":9169,"apple":9170,"ĊĠĠĠĠĠĠĠĠĠĠĠĠĠĠĠĠĠĠĠĠĠĠĠĠĠĠĠĠĠĠĠĠĠĠĠĠĠĠĠĠĠ":9171,"ĠFR":9172,"BUT":9173,"THREAD":9174,"Ġstarted":9175,"ĠFLA":9176,"BS":9177,"><?":9178,"çĲ":9179,"ancellation":9180,"ĠDon":9181,"ĠExp":9182,"=\"./":9183,"Ġlicenses":9184,"èĥ½":9185,"devices":9186,"ĠSymbol":9187,"Lines":9188,"graphics":9189,"toLowerCase":9190,"chars":9191,"ĠTemp":9192,"Reason":9193,"csv":9194,"Ġcanvas":9195,"Lin":9196,"Ġnegative":9197,"distance":9198,"iece":9199,"ĠInternal":9200,"neg":9201,"pay":9202,"Ġcy":9203,"Ġ__(":9204,"hot":9205,"news":9206,"Ġpromise":9207,"La":9208,"Mix":9209,"tty":9210,"dirty":9211,"SEQU":9212,"IES":9213,"CNT":9214,"rss":9215,"Exist":9216,"fh":9217,">)</":9218,"jet":9219,"Worker":9220,"Ġallocated":9221,"Ent":9222,"Ġol":9223,"Ġcreating":9224,"emo":9225,"intellij":9226,">',":9227,"versions":9228,"Ġmodification":9229,"Microsoft":9230,"EV":9231,"Ġflush":9232,"tex":9233,"Ġnotify":9234,"STEM":9235,")?":9236,"Feed":9237,"ICES":9238,"Compare":9239,"Ġtermin":9240,"Ġschedule":9241,"Ġmixed":9242,"formance":9243,"ç®":9244,"VENDOR":9245,"indices":9246,"Nd":9247,"RANGE":9248,"metric":9249,"Received":9250,"seek":9251,"ĠIllegalArgumentException":9252,"Â½":9253,"iface":9254,"ĠÎ":9255,"cart":9256,"FIFO":9257,"Ġfactor":9258,"Ġexact":9259,"Contract":9260,"Runner":9261,"Ġast":9262,"plug":9263,"áº":9264,"forge":9265,"pn":9266,"Ġtf":9267,"jack":9268,"hub":9269,"ĠBuilder":9270,"Authentication":9271,"UNKNOWN":9272,"Ġsuccessful":9273,"confirm":9274,"Ġ'{":9275,"555":9276,"IBUTORS":9277,"jd":9278,"PIX":9279,"ajor":9280,"ĠParameters":9281,"Ġbook":9282,"ClassName":9283,"evt":9284,"ÐµÑĤ":9285,"Ġangle":9286,"Leg":9287,"named":9288,"åĴĮ":9289,"WINDO":9290,"shop":9291,"geometry":9292,"bench":9293,"clusive":9294,"LT":9295,"Ġ//!":9296,"Ġmath":9297,"merce":9298,"Ġtexture":9299,"102":9300,"SIG":9301,"aken":9302,"Ġrecords":9303,"conv":9304,"Ãı":9305,"Ġpat":9306,"ERRUPT":9307,"Ġlonger":9308,"FIN":9309,"Ġelseif":9310,"readcrumb":9311,"frm":9312,"Msk":9313,"supp":9314,"Ġaround":9315,"ĠAD":9316,"oz":9317,"Ġlabels":9318,"glob":9319,"Ġrestore":9320,"ĠNOTE":9321,"ĠFirst":9322,"COPY":9323,"FREE":9324,"repository":9325,"XG":9326,"ĠMSM":9327,"Collect":9328,"mous":9329,"Ġretry":9330,"unregister":9331,"ERO":9332,"itr":9333,"NEXT":9334,"arger":9335,"ĠIm":9336,"Ġintegr":9337,"KEN":9338,"UG":9339,"OwnProperty":9340,"cycle":9341,"ĠSSL":9342,"~~~~~~~~":9343,"ĠLibrary":9344,"ĊĊĠĠĠĠĊĊĠĠĠĠ":9345,"cccc":9346,"Ùĩ":9347,"hint":9348,"ĠTCP":9349,"vn":9350,"FAILURE":9351,"ritical":9352,"Â¹":9353,"Ú©":9354,"Ġwords":9355,"Ġinputs":9356,"Acc":9357,"livery":9358,"Blocks":9359,"volatile":9360,"Sheet":9361,"Analysis":9362,"ĠAUTH":9363,"ceed":9364,"Ġhome":9365,"Ip":9366,"urred":9367,"Ġmodal":9368,">=":9369,"ãĤĭ":9370,"onymous":9371,"ĊĠĠĠĠĠĠĠĠĠĠĠĠĊĠĠĠĠĠĠĠĠĠĠĠĠ":9372,"iso":9373,"Ġjo":9374,"Ġgets":9375,"ĠVAR":9376,"ĠAlso":9377,"Ġ/><":9378,"Ġ><":9379,"LIT":9380,"ĠonClick":9381,"Ġcss":9382,"ĠAuthors":9383,"ĠCorp":9384,"ICATION":9385,"prob":9386,"ĠSDL":9387,"samples":9388,"stit":9389,"PEND":9390,"å¿":9391,"abstract":9392,"ining":9393,"NING":9394,"walk":9395,"hist":9396,"STATIC":9397,"ĊĠĠĠĠĠĠĠĠĠĠĠĠĠĠĠĠĊĠĠĠĠĠĠĠĠĠĠĠĠĠĠĠ":9398,"Ġear":9399,"commands":9400,"2019":9401,"Hint":9402,"BEGIN":9403,"Ġtvb":9404,"Â¸":9405,"Stub":9406,"Ġ[(":9407,"More":9408,"Ġcod":9409,"Ñħ":9410,"threads":9411,"144":9412,"Ġupload":9413,"mesh":9414,"è¨":9415,"Ġrb":9416,"sch":9417,"Ġ}).":9418,"124":9419,"ĠPromise":9420,"timeline":9421,"gz":9422,"Ġ----------------":9423,"stand":9424,"ĠConstant":9425,"!</":9426,"lax":9427,"removeClass":9428,"lambda":9429,"stylesheets":9430,"Ġconfigured":9431,"MX":9432,"ĠCopy":9433,"Ġmer":9434,"Ġbfd":9435,"Excel":9436,"Entries":9437,"ensity":9438,"Ġ02":9439,"Ġtokens":9440,".\")":9441,"GTK":9442,"orn":9443,"solid":9444,"ĠTemplate":9445,"Translation":9446,"perf":9447,"Ġabort":9448,"Car":9449,"iffies":9450,"ĠCONTRIBUTORS":9451,"çĲĨ":9452,"Ã®":9453,"Formatter":9454,"ĠMode":9455,"Ġprec":9456,"fun":9457,"TEX":9458,"Disk":9459,"DAT":9460,"éģ":9461,"ĠStruct":9462,"modified":9463,"ming":9464,"stdout":9465,"ĠVirtual":9466,"åŃĹ":9467,"ĠUsed":9468,"MEDI":9469,"React":9470,"White":9471,"CAST":9472,"[])":9473,"surface":9474,"OLE":9475,"bold":9476,"Ġmount":9477,"ĠSP":9478,"ĊĉĊĉ":9479,"may":9480,"ĠSHA":9481,"[-":9482,"UUID":9483,"pod":9484,"onom":9485,"ĠAcc":9486,"finish":9487,"Ġweight":9488,"ĠVerify":9489,"Kernel":9490,"Ġcome":9491,"SETT":9492,"grp":9493,"latest":9494,"deep":9495,"ĠTry":9496,"Ġ\"\");":9497,"Ġmysql":9498,"PCM":9499,"ĠOtherwise":9500,"verage":9501,"čĊĠĠĠĠĠĠĠĠĠĠĠĠĠĠĠĠĠĠĠĠĠĠĠĠĠĠĠĠĠĠĠĠĠĠĠĠĠĠĠ":9502,"ĠScript":9503,"Reply":9504,"Unique":9505,">.</":9506,"çİ":9507,"BF":9508,"Ð¸ÑĤ":9509,"HC":9510,"ANY":9511,"ple":9512,"ĠERR":9513,"Sound":9514,"Margin":9515,"anit":9516,"Ġregex":9517,"ĠOC":9518,"hello":9519,"ĊĊĊĊĊĊĊĊĊĊĊĊĊĊĊĊ":9520,"portfolio":9521,"Ġclip":9522,"Executor":9523,"pw":9524,"ĠOff":9525,"ĠPart":9526,"sound":9527,"Sys":9528,"Ġlua":9529,"noscript":9530,"ĠĊĠĠ":9531,"Ġ36":9532,"Enc":9533,"TEXTURE":9534,"Ġinitialized":9535,"Ġ#{":9536,"DOMAIN":9537,"ĠUS":9538,"Sem":9539,"live":9540,"verbose":9541,"OIN":9542,"ĠFloat":9543,"Ġregisters":9544,"Dist":9545,"capture":9546,"modifier":9547,"thumbnail":9548,"Asset":9549,"ste":9550,"ĠDisplay":9551,"oney":9552,"illed":9553,"Ġincludes":9554,"ĠTree":9555,"Named":9556,"uart":9557,"seed":9558,"subscribe":9559,"Suppress":9560,"Ġbounds":9561,"StackTrace":9562,"ĠSte":9563,"Ġhig":9564,"Ġpad":9565,"AIL":9566,"cost":9567,"ĠVOS":9568,"Ø§ÙĦ":9569,"Transfer":9570,"Ġpublish":9571,"Ġ2000":9572,"ĠNetwork":9573,"reserved":9574,"Present":9575,"gpu":9576,"Ġdefer":9577,"333":9578,"Ġ42":9579,"Ġ2009":9580,"mixer":9581,"Ġ(<":9582,"Ġuid":9583,"amb":9584,"bine":9585,"Ġdf":9586,":[":9587,"mq":9588,"Ġshall":9589,"dv":9590,"icture":9591,"RB":9592,"003":9593,"Ãĵ":9594,"ordered":9595,"Ġclk":9596,"åĳ":9597,"Ġcompile":9598,"ano":9599,"Å¡":9600,"Ġna":9601,"Ġieee":9602,"Please":9603,"MPLE":9604,"rowse":9605,"Ġ45":9606,"Popup":9607,"åĬł":9608,"FMT":9609,"ulated":9610,"Ð±":9611,"Ġknown":9612,"ç¤":9613,"Percent":9614,"elong":9615,"ãĤ¹":9616,"ora":9617,"cesses":9618,"Phaser":9619,"Ġê":9620,"Unable":9621,"forum":9622,">&#":9623,"Ġaccording":9624,"Ġpatch":9625,"Ø¨":9626,"×Ļ×":9627,"EF":9628,"ĠÐ¾":9629,"Hook":9630,"Ġfocus":9631,"orph":9632,"!\\":9633,"Ġ))":9634,"Upper":9635,"agraph":9636,"Ġfails":9637,"ĠShow":9638,"Ġæ":9639,"ĠMedia":9640,"ĠFormat":9641,"inger":9642,"ĠDIS":9643,"Ġtopic":9644,"ĠSu":9645,"ĠUP":9646,"Â²":9647,"Ġlambda":9648,"ATTRIB":9649,"åħ¥":9650,"Ġparticular":9651,"heel":9652,"CLUDE":9653,"Ġencode":9654,"Ġdrag":9655,"implement":9656,"concurrent":9657,"crypto":9658,"vals":9659,"curs":9660,"umpy":9661,"ENUM":9662,"Ġids":9663,"ĠCommon":9664,"CURRENT":9665,"ĠBig":9666,"ving":9667,"braries":9668,"ribe":9669,"\"];":9670,"MARK":9671,"Clip":9672,"Ġ2008":9673,"slave":9674,"FilePath":9675,"ĠSTAT":9676,"Alignment":9677,"LIMIT":9678,"Ġ34":9679,"CRY":9680,">[":9681,"Ġmis":9682,"wik":9683,"adc":9684,"antic":9685,"GENER":9686,"mber":9687,"iagnostics":9688,"Ġ59":9689,"BAD":9690,"ĠRX":9691,">');":9692,"Tables":9693,"å¼ı":9694,"ĠSm":9695,"Ġvertex":9696,"Dao":9697,"bordered":9698,"Ġderived":9699,"invoke":9700,"Ġher":9701,"annotations":9702,"Primary":9703,"Suite":9704,"Ġmarker":9705,"Sets":9706,"ĠActive":9707,"OPER":9708,"cedure":9709,"Ġsending":9710,"Ġexpand":9711,"ĠArgument":9712,"Ġexec":9713,"ĠConsole":9714,"114":9715,"Ġconnections":9716,"nable":9717,"ERY":9718,"Apply":9719,"quo":9720,"GS":9721,"EOF":9722,"Ġnotification":9723,"ĊĊĉĠ":9724,"Chat":9725,"'></":9726,"SCAL":9727,"Ġ99":9728,"Ġorig":9729,"ãĥĪ":9730,"Ġable":9731,"Ġcompleted":9732,"ĠNum":9733,"incipal":9734,"ĠGlobal":9735,"ARGS":9736,"Tick":9737,"Âº":9738,"ained":9739,"404":9740,"Try":9741,"vey":9742,"colors":9743,"helpers":9744,"ĠAttribute":9745,"ĠĠĠĠĠĠĠĠĠĠĠĠĠĠĠĠĠĠĠĠĠĠĠĠĠĠĠĠĠĠ":9746,"skill":9747,"aste":9748,"łģ":9749,"MMMM":9750,"ãģĹãģ":9751,"Ġmakes":9752,"ĠACTION":9753,"CXX":9754,"Put":9755,"elasticsearch":9756,"Ġcalculate":9757,"ĠIRQ":9758,"backup":9759,"pred":9760,"BUTTON":9761,"DIF":9762,"ĠHE":9763,"ĠDep":9764,"Validate":9765,"Di":9766,"Ġconfigure":9767,"åĩº":9768,"Ġrepresenting":9769,"Ġ400":9770,"pel":9771,"Marsh":9772,"ĠImplement":9773,"çĤ":9774,"æľ¬":9775,"Ġ---":9776,"ĠSM":9777,"valuation":9778,"112":9779,"](#":9780,"Toggle":9781,"Ġ')":9782,"Ġanything":9783,"åĲį":9784,"iate":9785,"rade":9786,"templates":9787,"ĠGrid":9788,"ByteArray":9789,"Ġdecla":9790,"mitem":9791,"***/":9792,"Used":9793,"Ġnl":9794,"Low":9795,"BG":9796,"ç«":9797,"Äĥ":9798,"nu":9799,"ails":9800,"GLenum":9801,"\")));":9802,"CAN":9803,"tls":9804,"ä½ľ":9805,"Ġwl":9806,"destination":9807,"JavaScript":9808,"sender":9809,"izard":9810,"%);":9811,"Ġbtrfs":9812,"ifth":9813,"union":9814,"915":9815,"omite":9816,"ims":9817,"Backend":9818,"Ġ'[":9819,"Ġsnapshot":9820,"pref":9821,"Changes":9822,"failure":9823,"Ġsimp":9824,"Team":9825,"good":9826,"entities":9827,"Ã¬":9828,"äºº":9829,"ĠInterface":9830,"omitempty":9831,"SCAN":9832,"IVER":9833,"ffero":9834,"Ok":9835,"ars":9836,"strument":9837,"ali":9838,"ĠtoString":9839,"Ġmk":9840,"ç¨ĭ":9841,"ĠAffero":9842,"Labels":9843,"ĠTransitional":9844,"Radius":9845,"geom":9846,"Ġpython":9847,"aching":9848,"pfn":9849,"Ġencoded":9850,"Paint":9851,"reduce":9852,"Ġpoly":9853,"character":9854,"401":9855,"Shadow":9856,"Arrays":9857,"Ġart":9858,"Disabled":9859,"Ġva":9860,"javax":9861,"NP":9862,"bss":9863,"tick":9864,"Ġcreation":9865,"Ġreally":9866,"desktop":9867,"Ġdetermin":9868,"Ġsorted":9869,"iÃ³n":9870,"Ġfast":9871,"Sig":9872,"ĠStringBuilder":9873,"CPP":9874,"Coin":9875,"ĠCache":9876,"Ġmult":9877,"Ġargc":9878,"ĠHOLDERS":9879,"Running":9880,"metrics":9881,"5555":9882,"Ġ\"--":9883,"ffix":9884,"ĠOK":9885,"BIN":9886,"HASH":9887,"isher":9888,"need":9889,"unused":9890,"subNav":9891,"čĊĉĉčĊĉ":9892,"Pack":9893,"icast":9894,"LARE":9895,"Ġdrm":9896,"ãģ«":9897,"Ã«":9898,"ĠOrder":9899,"Î½":9900,"Family":9901,"getC":9902,"Ġupdates":9903,"ĠProgram":9904,"ENTIAL":9905,"ĠĊĉĉĉ":9906,"/$":9907,"Visual":9908,"dependent":9909,"abort":9910,"RESOURCE":9911,"STRUCT":9912,"AreEqual":9913,"Ġtakes":9914,"getText":9915,"ĠðŁ":9916,"memitem":9917,"ÃĹ":9918,"Ġdictionary":9919,"chn":9920,"BI":9921,"Hex":9922,"Ġ66":9923,"Ġallocation":9924,"variables":9925,"æĸ°":9926,"Structure":9927,"Ġpo":9928,"LAST":9929,"rivers":9930,"toc":9931,"Ġownership":9932,"ĠCC":9933,"ĠDes":9934,"INTERNAL":9935,"(\"-":9936,"ets":9937,"Ġcollect":9938,"Old":9939,"Ġfinished":9940,"ĠExpression":9941,"ostream":9942,"Signal":9943,"missing":9944,"here":9945,"Hide":9946,"Merge":9947,"quick":9948,"PROPERTY":9949,"strlen":9950,"MAG":9951,"isk":9952,"]\\":9953,"MPLATE":9954,"Ġworking":9955,"Ġhy":9956,"mods":9957,"INLINE":9958,"Some":9959,"design":9960,"examples":9961,"atory":9962,"\\\":":9963,"EXEC":9964,"square":9965,"kill":9966,"ĠWM":9967,"Dot":9968,"orest":9969,":`":9970,"XP":9971,"Ġctrl":9972,"bundle":9973,"windows":9974,"ĠĊĠĠĠĠĠĠĠĠĠĠĠĠĠĠĠ":9975,"Ġ';":9976,"Strings":9977,"Ġ$$":9978,"lav":9979,"slug":9980,"compress":9981,"pping":9982,"GetType":9983,"Ġ{\\":9984,"ĊĉĉĉĉĉĉĊĉĉĉĉĉ":9985,"smb":9986,"Ġ202":9987,"RTC":9988,"ĠImmutable":9989,"utor":9990,"Ġfeed":9991,"SOCK":9992,"ĠREAD":9993,"hostname":9994,"åīį":9995,"Â¿":9996,"registry":9997,"164":9998,"CONNECT":9999,"Ġutils":10000,"maj":10001,"Ġbetter":10002,"HCI":10003,":',":10004,"Initial":10005,"floor":10006,"#!":10007,"ctxt":10008,"Regex":10009,"ĠOptions":10010,"Ġapplied":10011,".');":10012,"ÑĢÐµ":10013,"Pending":10014,"ratio":10015,"Â¨":10016,"called":10017,"../../../":10018,"Ġsur":10019,"åıĸ":10020,"ĠGEN":10021,"ĠGr":10022,"TV":10023,"setValue":10024,"Ġ?>\"":10025,"Modal":10026,"tokens":10027,"xxxx":10028,"Ġds":10029,"æŀľ":10030,"Loaded":10031,"illiseconds":10032,"ErrorCode":10033,"elocity":10034,"105":10035,"LABEL":10036,"iphy":10037,"dsi":10038,"amazonaws":10039,"RA":10040,"ĠFIXME":10041,"blockquote":10042,"NX":10043,"will":10044,"ĠConstruct":10045,"interpret":10046,"same":10047,"Ġcomplex":10048,"Refresh":10049,"Ġdispatch":10050,"ĠRCC":10051,"wards":10052,"ĠSpell":10053,"dbc":10054,"Ġbinding":10055,"aller":10056,"ĠLanguage":10057,"Warnings":10058,"Ġseparate":10059,"closed":10060,"Ġsupplied":10061,"Ġdistribute":10062,"Ġrepo":10063,"':'":10064,"106":10065,"ĠNow":10066,"Secret":10067,"Many":10068,"Ġrec":10069,"Clock":10070,"æķ°æį®":10071,"DEFINE":10072,"addon":10073,"FULL":10074,"2010":10075,"ĠBOTTOM":10076,"inate":10077,"ĠMatrix":10078,"Ġwatch":10079,"partial":10080,"Ġ------------------------------------------------":10081,"ĠThen":10082,"city":10083,"roker":10084,"Threshold":10085,"Constraints":10086,"TLS":10087,"adjust":10088,"Algorithm":10089,"Ġsem":10090,"Ġagent":10091,"operations":10092,"ama":10093,"ĠCoq":10094,"bash":10095,"AE":10096,"asp":10097,"ÃĪ":10098,"PID":10099,"ament":10100,"040":10101,"'ve":10102,"OG":10103,"Ð³":10104,"'=>'":10105,"aui":10106,"Ġdma":10107,"010":10108,"Ġgoog":10109,"ĠShould":10110,"visit":10111,"SHORT":10112,"4000":10113,"Ġ[{":10114,"encrypt":10115,"Ġoptim":10116,"DX":10117,"Ġframes":10118,"icip":10119,"Ïĥ":10120,"week":10121,"ĠHas":10122,"VC":10123,"Ġcorrectly":10124,"General":10125,"journal":10126,"Ġhook":10127,"acle":10128,"utter":10129,"æĪĳ":10130,"Cookie":10131,"ĠMIN":10132,"Bag":10133,";%":10134,"lish":10135,"sup":10136,"Ġmaterials":10137,"Payload":10138,"Iss":10139,"units":10140,"Ġdecode":10141,"About":10142,"Ġconnected":10143,"Ġnowrap":10144,"DataSource":10145,"Mult":10146,"hal":10147,"SDL":10148,"Ġretrieve":10149,"sur":10150,"DAP":10151,"Ġdimension":10152,"runner":10153,"Force":10154,"logic":10155,"Ġsans":10156,"Paths":10157,"Visibility":10158,"ĠCHAR":10159,"Ġang":10160,"ĊĉĉĉĉĠĠĠĠ":10161,"Ġvarchar":10162,"ĠSave":10163,"Models":10164,"routing":10165,"rowColor":10166,"Ġindices":10167,"Ġbuilt":10168,"Dock":10169,"datepicker":10170,"ĠAuth":10171,"Ġrestart":10172,"æİ¥":10173,"Components":10174,"Ġwon":10175,"Ġfp":10176,"dap":10177,"Ġ$(\"#":10178,"aming":10179,"ĠSession":10180,"Ġkwargs":10181,")$":10182,"multiple":10183,"Tracker":10184,"mms":10185,"Ġthead":10186,"'</":10187,"--------------":10188,"NdEx":10189,"Ġtransport":10190,"168":10191,"misc":10192,"Ġsyntax":10193,"Ġcamera":10194,"Mag":10195,"peated":10196,"Ġradius":10197,"ĠRecord":10198,"based":10199,"Ġssize":10200,"Ġexecuted":10201,"Ġactivity":10202,"Ġtoggle":10203,"Vo":10204,"aring":10205,"acion":10206,"firstrow":10207,"Blob":10208,"Ġlisten":10209,"best":10210,"Expect":10211,"bridge":10212,"Ġtensor":10213,"retry":10214,"PB":10215,"aling":10216,"ĠConstructor":10217,"1301":10218,"Ġ./":10219,"10000":10220,"suffix":10221,"legend":10222,"ember":10223,"Seconds":10224,"dh":10225,"RS":10226,"kb":10227,"payment":10228,"ĠFrank":10229,"transparent":10230,"lists":10231,"Ã¦":10232,"utral":10233,"Ġdelegate":10234,"scall":10235,"det":10236,"Ġgranted":10237,"Ã±":10238,"Geo":10239,"æīĢ":10240,"guide":10241,"Ġcoord":10242,"ä¼ļ":10243,"ĠDisable":10244,"vetica":10245,"ehicle":10246,"rollers":10247,"idi":10248,"xygen":10249,"aaaaaaaa":10250,"Ġrm":10251,"ÃĢ":10252,"prevent":10253,"DIG":10254,"115":10255,"(`":10256,"Ġservices":10257,"ceeded":10258,"Ġreverse":10259,"igator":10260,"km":10261,"Ġplot":10262,"CTX":10263,"]\",":10264,"INSTALL":10265,"?(":10266,"Ġrepresents":10267,"Price":10268,"ubernet":10269,"Pages":10270,"STER":10271,"CSR":10272,"Ġ//-->":10273,"TypeDef":10274,"ĊĊĉĠĠĠ":10275,"ç¤º":10276,"ubernetes":10277,"inputs":10278,"Ġgive":10279,"ĠOver":10280,")\");":10281,"describe":10282,"Disable":10283,"unset":10284,"ĠWorld":10285,"ĊĠĠĠĠĠĠĠĠĠĠĠĠĠĠĠĠĠĠĠĠĠĠĠĠĠĠĠĠĠĠĠĠĠĠĠĠĠĠĠĠĠĠĠĠ":10286,"Ġreferences":10287,"Ġhit":10288,"('\\":10289,"Ġconversion":10290,"ĠRequire":10291,"Ġrestriction":10292,"ynchronous":10293,"Ġrepeat":10294,"ĠGST":10295,"Ġhardware":10296,"Special":10297,"Ġcookie":10298,"Ġmultip":10299,"Ratio":10300,"ĊĠĠĠĠĉ":10301,"IFI":10302,"todo":10303,"bfd":10304,"VID":10305,"[],":10306,"eg":10307,"ala":10308,"Been":10309,",&":10310,"Notify":10311,"ĠNOTICE":10312,"cop":10313,"stone":10314,"ĠSettings":10315,"sector":10316,"Ġthreshold":10317,"ctype":10318,"identity":10319,"curl":10320,"Ġoutline":10321,"ccc":10322,"exclude":10323,"LV":10324,"Std":10325,"mime":10326,"mgr":10327,"[^":10328,"ĠGenerate":10329,"240":10330,"Ã¢":10331,"Millis":10332,"Measure":10333,"gb":10334,"Ġslice":10335,"äºİ":10336,"iq":10337,"ENSION":10338,"ãģĦ":10339,"TagName":10340,"ĠPlugin":10341,"Ġthings":10342,"endregion":10343,"INC":10344,"erase":10345,"sil":10346,"Ġ));":10347,"Ġsigned":10348,"PARAMETER":10349,"Ui":10350,"Intent":10351,"ifs":10352,"Ġcommun":10353,"rink":10354,"ICAL":10355,"issue":10356,"Ġcapture":10357,"ĠVariable":10358,"wc":10359,"finite":10360,"Enumerable":10361,"Stage":10362,"OVER":10363,"StatusCode":10364,"Ġtrim":10365,"666666":10366,"ĠConnection":10367,"Ġunits":10368,"245":10369,"Ã²":10370,"Ġthree":10371,"Cons":10372,"Uniform":10373,"ĠPermission":10374,"]-->":10375,"lability":10376,"Ġchip":10377,"åıĳ":10378,"Ġregarding":10379,"seudo":10380,"jar":10381,"Ãĩ":10382,"ogram":10383,"Ġscore":10384,"atable":10385,"rcu":10386,"Ro":10387,"Heading":10388,"Lite":10389,"ĠTARGET":10390,"packages":10391,"Ident":10392,"UBLE":10393,"ĠOriginal":10394,"Ġbgcolor":10395,"Ġcross":10396,"(--":10397,"!\");":10398,"æı":10399,"ĠGLenum":10400,"Ġmuch":10401,"0000000000000000":10402,"ĊĠĠĠĠĊĠĠĠĠĠĠĠ":10403,"Ġmix":10404,"listen":10405,"cross":10406,"Styles":10407,"Fixture":10408,"pts":10409,"Android":10410,"ĠSche":10411,"Ġremaining":10412,"Ġstyles":10413,"Ġadding":10414,"rotate":10415,"Ġplugins":10416,"parsed":10417,"ĠAllow":10418,"but":10419,"é¢":10420,":&":10421,"Ġdummy":10422,"nf":10423,"Ġum":10424,"cipe":10425,"('_":10426,"Â¾":10427,"Dig":10428,"fade":10429,"nom":10430,"bounds":10431,"302":10432,"PLY":10433,"customer":10434,"Ġcomments":10435,"Ġcut":10436,"lica":10437,"([]":10438,"Ġpick":10439,"SINGLE":10440,"rient":10441,"Ġretain":10442,"CCCC":10443,"SYSTEM":10444,"ĠAdded":10445,"LAIM":10446,")&":10447,"ĠDIRECT":10448,"åĽŀ":10449,"++){":10450,"multip":10451,"duced":10452,"(\",":10453,"004":10454,"quip":10455,"attachment":10456,"erature":10457,"Å¾":10458,"Curve":10459,"ĠDefine":10460,"Inline":10461,"å¤§":10462,">$":10463,"hdev":10464,"must":10465,"2110":10466,"ĠMenu":10467,"conditions":10468,"Wrap":10469,"abb":10470,"Ġthreads":10471,"dns":10472,"Phase":10473,"Alt":10474,"Metric":10475,"crypted":10476,"ĠDatabase":10477,"Ġwhose":10478,"Updated":10479,"snapshot":10480,"Ġ150":10481,"vf":10482,"AK":10483,"Ġattempt":10484,"{},":10485,"Two":10486,"pause":10487,"ISO":10488,"ĠDr":10489,"ĠInstance":10490,">()</":10491,"Certificate":10492,"ĠEng":10493,"urther":10494,"added":10495,"Revision":10496,"park":10497,"Ïģ":10498,"ĠFloor":10499,"Contain":10500,"Ġcompletion":10501,"Ġauthentication":10502,"commerce":10503,"days":10504,"ĠPointer":10505,"Ġpg":10506,"Checker":10507,"Ġdecimal":10508,"buffers":10509,"XXX":10510,"Encode":10511,"æĽ":10512,"--)":10513,"Ġmonitor":10514,"çŃ":10515,"dataset":10516,"phase":10517,"Phone":10518,"ĠThrow":10519,"Subject":10520,"('../":10521,"toEqual":10522,"mbed":10523,"plane":10524,"Final":10525,"Ġpermitted":10526,"Pl":10527,"ĊĠĠĠĠĠĠĠĠĠĠĠĠĠĠĠĠĠĠĠĠĠĠĠĠĠĠĠĠĠĠĠĠĠĠĠĠĠĠĠĠĠĠ":10528,"visibility":10529,"ernate":10530,"management":10531,"mean":10532,"Clean":10533,"185":10534,"122":10535,"Ġperf":10536,"race":10537,"Â¬":10538,"Management":10539,"Foo":10540,"çº":10541,"solr":10542,"Ġaccesskey":10543,"ĠBasic":10544,"Ġentire":10545,"Safe":10546,"even":10547,"ares":10548,"Ġrefresh":10549,"osed":10550,"ĠMAC":10551,"ĠMac":10552,"Allowed":10553,"war":10554,"åĲİ":10555,"OLEAN":10556,"statement":10557,"lator":10558,"Ġseed":10559,"ĠPosition":10560,"Hello":10561,"789":10562,"Ġweek":10563,"Ġworker":10564,"cores":10565,"Img":10566,"projects":10567,"Ġdefines":10568,"Keep":10569,"CONTEXT":10570,"Ġroom":10571,"INTERFACE":10572,"enumer":10573,":/":10574,"---------------":10575,"ĠAmazon":10576,"Ġfake":10577,"jp":10578,"SECON":10579,"Super":10580,"innerHTML":10581,"unicode":10582,"WP":10583,"bm":10584,"Ġ2005":10585,"written":10586,"Criteria":10587,"Ġfinish":10588,"ĠPlace":10589,"ĠÑĤ":10590,"ï¼ī":10591,"Med":10592,"letter":10593,"Padding":10594,"Â«":10595,"ĠCorporation":10596,"Ġassembly":10597,"ĠHO":10598,"Sent":10599,"ĠButton":10600,"favicon":10601,"ĠEXT":10602,"izable":10603,"ĠCRC":10604,"revision":10605,"Ġwho":10606,"IDs":10607,"acon":10608,"Sol":10609,"ublisher":10610,"________________":10611,"bank":10612,"NOSCRIPT":10613,"IDX":10614,"Ġnested":10615,"wallet":10616,"Variables":10617,"lds":10618,"Ġfilters":10619,"Slice":10620,"Ġmemcpy":10621,"OV":10622,"ĊĉĉĉĉĊĉĉĉ":10623,"Ġconfirm":10624,"rott":10625,"loss":10626,"ternate":10627,"******/":10628,"respond":10629,"Primitive":10630,"ĠMet":10631,"grad":10632,"alyzer":10633,"getData":10634,"ï¼Ī":10635,"ç´":10636,"Ġframework":10637,"hest":10638,"Ġgeneral":10639,"ellow":10640,"Ġic":10641,"ĠFranklin":10642,"choice":10643,"109":10644,"Ġdjango":10645,"products":10646,"132":10647,"records":10648,"Ġiv":10649,"ãģ§":10650,"Ġembed":10651,"æĸĩä»¶":10652,"ĠMSG":10653,"Ġdu":10654,"BIG":10655,"ĠGtk":10656,"ĠCMD":10657,"lia":10658,"Ġimmediately":10659,"norm":10660,"\"</":10661,"ĠÐ·":10662,"ĠGo":10663,"Decoder":10664,"Ġsamples":10665,"ĠLabel":10666,"ByName":10667,"čĊĉĉĉĉĉĉĉĉ":10668,"ĠARM":10669,"pires":10670,"'][":10671,"WriteLine":10672,"completion":10673,"REGISTER":10674,"Hit":10675,"åĻ":10676,"Ġdx":10677,"Ġphase":10678,"decimal":10679,"ĠSIGN":10680,"stringify":10681,"shutdown":10682,"detect":10683,"Plot":10684,"ÑĢÐ°Ð":10685,"Ġteam":10686,"pector":10687,"irqrestore":10688,"Ġpercent":10689,"bitr":10690,"UMN":10691,"Ġpaint":10692,"Ġdentry":10693,"limiter":10694,"anging":10695,"ĠNull":10696,"Ñİ":10697,"Ġcf":10698,"Detector":10699,"gsl":10700,"Ġtransactions":10701,"boss":10702,"Ġsleep":10703,"Ġroutine":10704,"Ġstmt":10705,"strn":10706,"STA":10707,"connector":10708,"Lang":10709,"UAL":10710,"MOV":10711,"ĠStyle":10712,"]],":10713,"ĠAws":10714,"vcpu":10715,"ÃĴ":10716,"ĠLE":10717,"moment":10718,"æĬ":10719,"Priv":10720,"ĠDraw":10721,"Ġhighlight":10722,"olor":10723,"Ġchannels":10724,"dif":10725,"subscription":10726,"Overlay":10727,"ĠWhether":10728,"builtin":10729,"Ġoutside":10730,"REEN":10731,"0100":10732,"ĠPROC":10733,"getProperty":10734,"ä¹ĭ":10735,"Ġnk":10736,"åĿ":10737,"allocate":10738,"Ġ/^":10739,"ĠAtom":10740,"ota":10741,"ĠHFILL":10742,"sources":10743,"ãĢĢ":10744,"ĠFifth":10745,"Ġai":10746,"lee":10747,"integr":10748,"116":10749,"tid":10750,"sters":10751,"ĠDWORD":10752,"Doctrine":10753,"Confirm":10754,"ĠImport":10755,"\\\">":10756,"itect":10757,"tures":10758,"TODO":10759,"åı¯ä»¥":10760,"ĠOne":10761,"Shift":10762,"è´":10763,"à¤°":10764,"SEARCH":10765,"exceptions":10766,"GRAM":10767,"ato":10768,"Ġ70":10769,"ĠMemory":10770,"MEMORY":10771,"-\">":10772,"EXIT":10773,"ulse":10774,"Ġwhole":10775,"states":10776,"ĠRout":10777,"shortcut":10778,">{":10779,"HZ":10780,"ĠNL":10781,"iph":10782,"ubble":10783,"WD":10784,"Ġ}}</":10785,"Ġregular":10786,"Ġ02110":10787,"ĠAlloc":10788,"Ø§Ø":10789,"zh":10790,"åĻ¨":10791,"CY":10792,"Ġsizes":10793,"GNU":10794,"Ġpeg":10795,"ya":10796,"ĠJavaScript":10797,"SPELL":10798,"ĠMP":10799,"getKey":10800,"crete":10801,"Hidden":10802,"ĠÐ±":10803,"what":10804,"mic":10805,"::~":10806,"Ġfrequency":10807,"stor":10808,"reflect":10809,"ĠGPL":10810,"Ġ}),":10811,"Ġsym":10812,"tok":10813,"developer":10814,"uman":10815,"à§°":10816,"Äį":10817,"includes":10818,"REL":10819,"nested":10820,"æĿ¥":10821,"Ġ\"../":10822,"Ġgc":10823,"preter":10824,"Ġpp":10825,"?</":10826,"Ġ\\\\":10827,"arc":10828,"Ġparsing":10829,"Heap":10830,"rhs":10831,"Ġprocessed":10832,"Modules":10833,"Ġbitmap":10834,"RESH":10835,"iet":10836,"Ġpixels":10837,"gable":10838,"Added":10839,"åĬ¨":10840,"103":10841,"getElementsBy":10842,"Ġconstants":10843,"MSearch":10844,"Alert":10845,"Have":10846,"Â¦":10847,"PLA":10848,"Ð¾Ð´":10849,"addEventListener":10850,"clo":10851,"Ġperformance":10852,"afari":10853,"verts":10854,"')\"":10855,"Cost":10856,"âĢĿ":10857,"ĠStore":10858,"nobr":10859,"Ġdisplayed":10860,"+-+-":10861,"ullet":10862,"Ġbuffers":10863,"Defined":10864,"getUser":10865,"'\"":10866,"Ġcalc":10867,"Ġfit":10868,"planation":10869,"chg":10870,"Ġfire":10871,"MATCH":10872,"breadcrumb":10873,"sep":10874,"Ġcv":10875,"half":10876,"Ł¥":10877,"ĠXml":10878,"FFECT":10879,"deleted":10880,"Ġimplicit":10881,"Extract":10882,"ëĭ¤":10883,"ju":10884,"Software":10885,"andbox":10886,"æĭ":10887,"allen":10888,"_{":10889,"Payment":10890,"Health":10891,"Ġassigned":10892,"Âª":10893,"Ġ{$":10894,"opcode":10895,"future":10896,"Ġcompatible":10897,"ĠHeader":10898,"ĊĉĉĉĉĠĠĠĠĠ":10899,"TOKEN":10900,"ancy":10901,"Ġcycle":10902,"EventHandler":10903,"enario":10904,"urity":10905,"Previous":10906,"Ġcli":10907,"asset":10908,"ĠDISC":10909,"ando":10910,"scsi":10911,"čĊĠĠĠĠčĊĠĠĠ":10912,"Ġlogic":10913,"notes":10914,"Ġbecome":10915,"ĊĉĠĠĠĠĠĠĠĠ":10916,"ĠTop":10917,"Git":10918,"velopers":10919,"Ġcontributors":10920,"EventArgs":10921,"ĠTarget":10922,"Ġgoing":10923,"Scheduler":10924,"Ġprepare":10925,"ĠPFN":10926,"getTime":10927,"éĿ¢":10928,"Highlight":10929,"IPS":10930,"syntax":10931,"urable":10932,"Ġlt":10933,"dyn":10934,"sections":10935,"RAM":10936,"HOME":10937,"*.":10938,"Ġ*)&":10939,"ĠDES":10940,"AUDIO":10941,"Scheme":10942,"Parts":10943,"ftp":10944,"VB":10945,",{":10946,"ĠNON":10947,"ĠPrivate":10948,"Ġ!!":10949,"Ġgpio":10950,"]>":10951,"Ġchecking":10952,"aside":10953,"ĊĉĠĠĠĠĠĠĠĠĠĠĠĠĠĠĠ":10954,"Ġfront":10955,"×Ķ":10956,"pipeline":10957,"ĠMay":10958,"servers":10959,"Distribut":10960,"ĠExecut":10961,"#!/":10962,"åŃĺ":10963,"gain":10964,"DK":10965,"ãĤ¤":10966,"MIX":10967,"æģ":10968,"assoc":10969,"extent":10970,"Ġstub":10971,"čĊčĊĠĠĠĠĠĠĠĠĠĠĠĠĠĠĠ":10972,"Bridge":10973,"Ġanim":10974,"è®¾":10975,")\";":10976,"<?>":10977,"ctp":10978,"108":10979,"Ms":10980,"Prototype":10981,"Ġcontributor":10982,"TEMP":10983,"Ġagreements":10984,"vir":10985,"RET":10986,"CASE":10987,"DN":10988,"gallery":10989,"ÂłÂł":10990,"Occ":10991,"gether":10992,"ĠErr":10993,"Ġtranslation":10994,"ĠWait":10995,"Pyx":10996,"Ġnb":10997,"iner":10998,"BUSY":10999,"èĩª":11000,"memberNameLink":11001,"Ġatomic":11002,"Ġindicates":11003,"ĠContainer":11004,"gregation":11005,"Ġslide":11006,"hit":11007,"npm":11008,"BODY":11009,"Ġgenerator":11010,"posed":11011,"Where":11012,"Ġinvoke":11013,"è¿ĩ":11014,"2020":11015,"ootstrap":11016,"osen":11017,"Retry":11018,"ĠGeneric":11019,"Hy":11020,"isation":11021,"ÃĶ":11022,"Ġproducts":11023,"Ġproperly":11024,"Shell":11025,"Ġcharge":11026,"Ġitr":11027,"113":11028,"ç¼":11029,"EDIT":11030,"Inject":11031,"Ġmanagement":11032,"Ġhandlers":11033,"Units":11034,"Js":11035,"notifier":11036,"ĠFixed":11037,"Est":11038,"Ġunion":11039,"107":11040,"leave":11041,"Ġlisting":11042,"Ġthrown":11043,"Ġrgb":11044,"Rx":11045,"Clause":11046,"Ġsolution":11047,"dai":11048,"IBILITY":11049,"ĠÃł":11050,"submenu":11051,"changes":11052,"dtype":11053,"animate":11054,"precision":11055,"Listeners":11056,"ĠUnivers":11057,"NotFoundException":11058,")|":11059,"Ġhex":11060,"Blue":11061,"SND":11062,"linked":11063,"Ġ'&":11064,"igrate":11065,"Ġix":11066,"Sel":11067,"/***/":11068,"899":11069,"Slide":11070,"Ġqueries":11071,"Ġblk":11072,"ĠMB":11073,"SDK":11074,"Ġdtype":11075,"Damage":11076,"Ġrv":11077,"ittle":11078,"VOID":11079,"wind":11080,"memname":11081,"ĠDCHECK":11082,"Ġdesign":11083,"delegate":11084,"Filters":11085,"glib":11086,"ÑĦ":11087,"ingleton":11088,"ĠĠĊ":11089,"mfd":11090,"commun":11091,"Inherit":11092,"Ãī":11093,"'\",":11094,"Ġmeasure":11095,"Prob":11096,"intro":11097,"ĠCOLSPAN":11098,"Ġpag":11099,"Ġinitialization":11100,"CLOCK":11101,"ĠCUR":11102,"Ġmacro":11103,"Ġdetect":11104,"encoder":11105,"Ġdataset":11106,"@{":11107,"ĠSERV":11108,"DEFIN":11109,"NaN":11110,"MyBlog":11111,"Ġmesh":11112,"FREQ":11113,"Processing":11114,"Ġstage":11115,"Ġfriend":11116,"Ġwaiting":11117,"/#":11118,"major":11119,"ĠOPT":11120,"Ġpi":11121,"Ġincrement":11122,"Ġcost":11123,"Tmp":11124,"ĠParameter":11125,"\\\",":11126,"igen":11127,"Ġshown":11128,"ĠSummary":11129,"ĠMD":11130,"cipher":11131,"pick":11132,"Ġcomplet":11133,"169":11134,"steps":11135,"Ġims":11136,"Ġreceiv":11137,"ĠMMC":11138,"quivalent":11139,"Ġ*****************************************************************************":11140,"Receive":11141,"MetaData":11142,"Ġarrays":11143,"Ġinject":11144,"========================":11145,"=\"//":11146,"ĠADD":11147,"Testing":11148,"((\"":11149,"VA":11150,"tri":11151,">\");":11152,"Ġtc":11153,"Ġhandled":11154,"Ġpot":11155,"DESCRIPT":11156,"ĠMat":11157,"contain":11158,"Pin":11159,"prot":11160,"Operations":11161,"ĠReport":11162,"DELAY":11163,"Foundation":11164,"gate":11165,"ĠWord":11166,"ĠGLint":11167,"Ġrefer":11168,"Ġmi":11169,"ĠPsi":11170,"maxcdn":11171,"enchmark":11172,"EMPTY":11173,"hasOwnProperty":11174,"Injection":11175,"Ġloader":11176,"133":11177,"Ġquest":11178,"Ġsensor":11179,"ĠVER":11180,"Forward":11181,"Ġpersist":11182,"Destination":11183,"IMARY":11184,"Exec":11185,"BIND":11186,"Submit":11187,"EFAULT":11188,"Ġcd":11189,"_'":11190,"MG":11191,"divider":11192,"Ġsources":11193,"__.":11194,"Printf":11195,"Stmt":11196,"Initialize":11197,"ĠVIR":11198,"Room":11199,"feedback":11200,"liver":11201,"TEMPLATE":11202,"åĨħ":11203,"outline":11204,"ĉĊ":11205,"Ġring":11206,"à¤¿":11207,"subtitle":11208,"[_":11209,"Patch":11210,"INTEGER":11211,"isValid":11212,"dirs":11213,"ĠInitialized":11214,"xffffffff":11215,"Encoder":11216,"ĠStop":11217,"æµ":11218,"reject":11219,"sTo":11220,"Ġstrip":11221,"Ġretrie":11222,"environment":11223,"Ġ41":11224,"æ¯":11225,"RESP":11226,"à§į":11227,"ĠSymfony":11228,"ĠCalled":11229,"ĊĊĠĠĠĠĠĠĠĠĠĠĠĠĠĠĠĠĠĠĠĠĠĠĠĠĠĠĠ":11230,"ulo":11231,"ris":11232,"STACK":11233,"Reflection":11234,"Registration":11235,"ivot":11236,"ADER":11237,"Preferences":11238,"ĠčĊĉ":11239,"lon":11240,"Ġreflect":11241,"Ġabs":11242,"VS":11243,"associ":11244,"HAVE":11245,"lm":11246,"ĊĉĉĉĉĉĠ":11247,"ĠUint":11248,"ĠRelease":11249,"Attrib":11250,"Ġfall":11251,"ĠPL":11252,"Ġextend":11253,"ĠparseInt":11254,"Dump":11255,"lcd":11256,"Completion":11257,"cussion":11258,"moving":11259,"Ġgreater":11260,"Sprintf":11261,"Ġmb":11262,"Ġide":11263,"Ġgst":11264,"algorithm":11265,"Ġcoordinates":11266,"ĠCOMP":11267,"Ġbackup":11268,"Ġsin":11269,"ĠSN":11270,"Assembly":11271,"Keyword":11272,"DONE":11273,"ysics":11274,"TM":11275,"Ġsynchronized":11276,"ĠWLAN":11277,"Ġ///<":11278,"Ġmatched":11279,"POSITION":11280,"drvdata":11281,"ĊĉĉĉĉĠĠĠĠĠĠ":11282,"Ġlists":11283,"ReadOnly":11284,"Ġcm":11285,"Ġsuc":11286,"ZERO":11287,"azure":11288,"odb":11289,"unstable":11290,"2007":11291,"Pat":11292,"interfaces":11293,"()`":11294,"balance":11295,"Ġ\"{":11296,"145":11297,"Ġscalar":11298,"Ġquestion":11299,"ught":11300,"Ġcx":11301,"getCurrent":11302,"ĠASN":11303,"compat":11304,"fileName":11305,"WINDOW":11306,"BYTES":11307,"Mobile":11308,"Nested":11309,"ÙĨØ§":11310,"commended":11311,"åĢ¼":11312,"Ġ*_":11313,"odd":11314,"PROP":11315,"Ġswap":11316,"Unexpected":11317,"TRANS":11318,"esian":11319,"initialized":11320,"ĠLinux":11321,"801":11322,"130":11323,"VP":11324,"ĠHost":11325,"Statistics":11326,"publish":11327,"SQ":11328,"cial":11329,"Subscription":11330,"Ġtick":11331,"ropped":11332,"(<":11333,"ĠSTM":11334,"Ġshell":11335,"onomy":11336,"ASH":11337,"Ġdesired":11338,"çłģ":11339,"online":11340,"Linear":11341,"HDR":11342,"raction":11343,"scriptions":11344,"ley":11345,"ĊĊĠĠĠĠĠĠ":11346,"ĠWR":11347,"Ġmaint":11348,",</":11349,"ays":11350,"Than":11351,"Ð°Ð»":11352,"Sender":11353,"aped":11354,"Ġinstant":11355,"Decode":11356,"Ġrepro":11357,"Called":11358,"iver":11359,"ĠWIN":11360,"skin":11361,"ĠLP":11362,"Ġzip":11363,"SPEC":11364,"æ¬":11365,"ĠFUN":11366,"smodel":11367,"Dup":11368,"follow":11369,"ĠBUS":11370,"Cfg":11371,"bert":11372,"ĠCloud":11373,";-":11374,"FIRST":11375,"Ġ2007":11376,"Ġcreates":11377,"nowled":11378,"redit":11379,"\">{{":11380,"Router":11381,"readonly":11382,"Ġzoom":11383,"Customer":11384,"]\"":11385,"UNUSED":11386,"exe":11387,"Using":11388,"ems":11389,"Ġshare":11390,"èµ":11391,"Vals":11392,"Ġextensions":11393,"################################################################":11394,"photo":11395,"Ġnorm":11396,"DIAN":11397,"avg":11398,"TRIG":11399,"Redirect":11400,"ĠValidate":11401,"Ġ44":11402,"Ġbackend":11403,"icky":11404,"orse":11405,"etween":11406,"stroke":11407,"retty":11408,"Generate":11409,"ĠÂ©":11410,"Emitter":11411,"=='":11412,"acer":11413,"qr":11414,"Connector":11415,"COR":11416,"Ġprobably":11417,"Ġ120":11418,"Ġinherited":11419,"Rectangle":11420,"Ġescape":11421,"ior":11422,"Dimension":11423,"Ġnfs":11424,"vr":11425,"Ġfun":11426,"FILES":11427,"chk":11428,"oct":11429,"chase":11430,">-":11431,"PLAYER":11432,"Images":11433,"illing":11434,"xFFFE":11435,"çĤ¹":11436,"=\\":11437,"mis":11438,"scriber":11439,"Cor":11440,"ISH":11441,"spe":11442,"Ġrouter":11443,"ĠCP":11444,"Ġoccurred":11445,"384":11446,"ĠSince":11447,"ĠCONNE":11448,"how":11449,"adj":11450,"'}),":11451,"ĠHelper":11452,"ĠSwitch":11453,"`:":11454,"hz":11455,".%":11456,"Ġoperand":11457,"DAC":11458,"FLOW":11459,"Ġbelong":11460,"argc":11461,"Ġgeometry":11462,"utation":11463,"ĠMOD":11464,"dating":11465,"csi":11466,"Ġbb":11467,"hh":11468,"filer":11469,"adr":11470,"limits":11471,"Ġ1000000":11472,"validator":11473,"çľ":11474,"Ġdissect":11475,"ience":11476,"Ġsyn":11477,"isArray":11478,"jobs":11479,"!\"":11480,"(',":11481,"ĠOCaml":11482,"Ġ__('":11483,"bined":11484,"ĠEL":11485,"ĉĠ":11486,"Relative":11487,"PART":11488,":\",":11489,"plain":11490,"ĠLock":11491,"Sink":11492,"ĉĉĉĉĉĉĉ":11493,"analysis":11494,"SUPPORTED":11495,"Associ":11496,"Ġundef":11497,"fv":11498,"ĠConn":11499,"PORTS":11500,"ippet":11501,"arante":11502,"wi":11503,"Ġmemset":11504,"\">(</":11505,"ĠInformation":11506,"extype":11507,"minecraft":11508,"ĠSTD":11509,"WH":11510,"servlet":11511,"Integr":11512,"Ġdd":11513,"ĠAudio":11514,"Viewer":11515,"ĠEns":11516,"ampa":11517,">/":11518,"ĠEach":11519,"Ġ56":11520,"edException":11521,"neutral":11522,"rating":11523,"æłĩ":11524,"ÏĢ":11525,"Ġcnt":11526,"\">[":11527,"Ġfb":11528,"Ġbundle":11529,"idade":11530,"Â©":11531,"Slider":11532,"Â§":11533,"ĊĠĠĊĠĠ":11534,"you":11535,"oler":11536,"ĠAM":11537,"ĠMove":11538,"ĠHowever":11539,"QUERY":11540,"Under":11541,"()\"":11542,"uncate":11543,"Mo":11544,"irmed":11545,"ĠValueError":11546,"ĠAg":11547,"Ġrank":11548,"#####":11549,"ĠSetup":11550,"ĠReal":11551,"Ġfew":11552,"Ġnor":11553,"Ġexclude":11554,"147":11555,"Ġ38":11556,"Gateway":11557,"Ãµ":11558,"Ġaddition":11559,"/*----------------------------------------------------------------":11560,"HP":11561,"Ġsubmit":11562,"ANI":11563,"umbnail":11564,"Ġcoding":11565,"Ġmr":11566,"Multiple":11567,"ĠLast":11568,"SCHE":11569,"Fake":11570,"Ùģ":11571,"FileSystem":11572,"++,":11573,"ĠProperties":11574,"ãĥ«":11575,"ĠSPECIAL":11576,"ipt":11577,"fifo":11578,"Ġ~(":11579,"Ġinvoked":11580,"ĠRPC":11581,"ĠCount":11582,"ĠIPv":11583,"gem":11584,"inherited":11585,"Ġcertain":11586,"åĵ":11587,"xp":11588,"jsp":11589,"anned":11590,"ĠController":11591,"301":11592,"Ġhad":11593,"Ġ\"\\\"":11594,"+(":11595,"Nil":11596,"Ġflat":11597,"inity":11598,"Ġeval":11599,"claim":11600,"ĠUsage":11601,"ĠLayout":11602,"nth":11603,"ĠMulti":11604,"Ġpackages":11605,"CAM":11606,"smodels":11607,"âĢĵ":11608,"Jo":11609,"dog":11610,"Ã°":11611,"remarks":11612,"ĠCar":11613,"Commands":11614,"Ġcallbacks":11615,"dic":11616,"memItemLeft":11617,"Ġtargets":11618,"Ġ%%":11619,"139":11620,">`":11621,")'":11622,"ĠMatch":11623,"photon":11624,"ĠPER":11625,":$":11626,"ĊĠĠĠĠĠĠĠĠĊĠĠĠ":11627,"increment":11628,"Ġ&(":11629,"ìĿ´":11630,"Ġ37":11631,"Ġ[#":11632,"Ġsuffix":11633,"iS":11634,"thers":11635,"ITER":11636,"Ġhist":11637,"Ġpipeline":11638,"Azure":11639,"extends":11640,"Routing":11641,"Supp":11642,"VIR":11643,"Ġinf":11644,"ĠMethods":11645,"ĠCOMM":11646,"Ġassignment":11647,"cms":11648,"pring":11649,"READY":11650,"ubic":11651,"Ġsha":11652,"efficient":11653,"ĠNET":11654,"going":11655,"Ġsurface":11656,"Ġcopied":11657,"=</":11658,"ipheral":11659,"Annotations":11660,"instruction":11661,"aligned":11662,"tone":11663,"Aut":11664,"Sprite":11665,"cpi":11666,"ĠPFNGL":11667,"Ġ\"*":11668,"å»":11669,"Ġstates":11670,"Ġchecksum":11671,"Username":11672,"IOC":11673,"Ġindividual":11674,"Polygon":11675,"Assignment":11676,"SERVICE":11677,"igate":11678,"å¼Ģ":11679,"Ð¾Ð¼":11680,"80000000":11681,"existing":11682,"INCLUDE":11683,"llvm":11684,"memItemRight":11685,"ĠGit":11686,"tempts":11687,"Share":11688,"STD":11689,"Week":11690,"logs":11691,"ĠDocumentation":11692,"Ġspecifies":11693,"008":11694,"die":11695,"Linq":11696,"ĠSYS":11697,"Ġblob":11698,"rust":11699,"istent":11700,"enant":11701,"Ġstuff":11702,"ancellationToken":11703,"Ġpositive":11704,"CONTENT":11705,"ĠObservable":11706,"Ġ=========================================================================":11707,"INFR":11708,"scheme":11709,"Preview":11710,"utorial":11711,"Ġec":11712,"charts":11713,"Ġhalf":11714,"ĠFont":11715,"ĠTests":11716,"768":11717,"Ġtemporary":11718,"rgba":11719,"FOUND":11720,"fname":11721,"ĠADV":11722,"ĠStandard":11723,"slds":11724,"igure":11725,"éĢļ":11726,"hold":11727,"Ġops":11728,"irqsave":11729,"xmm":11730,"Ġ\"./":11731,"Complex":11732,"Ġblue":11733,"ComboBox":11734,"ĠJob":11735,"ELEMENT":11736,"reload":11737,"Actor":11738,"ouch":11739,"Ãį":11740,"Ġfooter":11741,"Ġlatest":11742,"Ġ2018":11743,"à¥ĩ":11744,"564":11745,"pte":11746,"SuppressWarnings":11747,"psz":11748,"Ġfre":11749,"ĠProduct":11750,"usion":11751,"EA":11752,"Mount":11753,"manual":11754,"SEQUENTIAL":11755,"SLOT":11756,"ÑĢÐ¸":11757,"Ġextern":11758,"Pol":11759,"čĊĠĠĠĠĠĠ":11760,"Ġcomputed":11761,"pll":11762,"Ġsched":11763,"ä¿¡":11764,"Ġerrno":11765,"Cached":11766,"catalog":11767,"rsp":11768,"Ġanswer":11769,"Ġscripts":11770,"arb":11771,"ampaign":11772,"Ġ=~":11773,"Pipeline":11774,"Ġcodec":11775,"ĠInfo":11776,"ENTAL":11777,"1999":11778,"grup":11779,"urations":11780,"eby":11781,"Once":11782,"ĠRange":11783,"Ġpairs":11784,"Absolute":11785,"MENU":11786,"printStackTrace":11787,"bean":11788,"Ġremain":11789,"INGE":11790,"FLASH":11791,"ĠInsert":11792,"ĠASC":11793,"spark":11794,"Ġtell":11795,"210":11796,"ĊĉĉĉĉĉĠĠ":11797,"rip":11798,"Construct":11799,"Clone":11800,"marshal":11801,"Ġ2006":11802,"persistence":11803,"QUEUE":11804,"ĠĊĠĠĠĠĠĠĠĠ":11805,"GLOBALS":11806,"eu":11807,"DROP":11808,"Orient":11809,"opam":11810,"ĠÐ¼":11811,"ĠSchema":11812,".\";":11813,"minor":11814,"STATS":11815,"Ġdefinitions":11816,"Ġangular":11817,"ĠFrom":11818,"Ġunset":11819,"Ġlicensed":11820,"inx":11821,"jq":11822,"Ġdamage":11823,"CHO":11824,"ĠNext":11825,"dashboard":11826,"æ¨":11827,"Ġpng":11828,"SUM":11829,"MIC":11830,"Ġshadow":11831,"MAIL":11832,"Ġarticle":11833,"lar":11834,"yh":11835,"ALLOW":11836,"))))":11837,"Ġvarious":11838,"Ġstarts":11839,"Diagnostics":11840,"PULL":11841,"esp":11842,"Ġarchive":11843,"Ġsteps":11844,"134":11845,"lk":11846,"COUN":11847,"Horizontal":11848,"Ġdy":11849,"orer":11850,"ĊĠĠĠĠĠĠĠĠĠĠĠĠĠĠĠĠĠĠĠĠĠĠĠĠĠĠĠĠĠĠĠĠĠĠĠĠĠĠĠĠĠĠĠĠĠ":11851,"wide":11852,"Ġchoose":11853,"ÃĨ":11854,"STORE":11855,"ĠRel":11856,"banner":11857,"Ġdetected":11858,"ãĥĥ":11859,"Zip":11860,"Ġrather":11861,"creature":11862,"ĠXXX":11863,"getLogger":11864,"220":11865,"éĶ":11866,"Archive":11867,"utions":11868,"ky":11869,"ĠPTR":11870,"preventDefault":11871,"bitrary":11872,"åŀ":11873,"MULTI":11874,"ULONG":11875,"roken":11876,"Ġwire":11877,"Sharp":11878,"CENTER":11879,"ĠÃ©":11880,"ĠStorage":11881,"ENAME":11882,"ĠDictionary":11883,"ract":11884,"Ġdeprecated":11885,"ENDIAN":11886,"×ª":11887,"Ġ'/'":11888,"BM":11889,"exif":11890,"224":11891,"adget":11892,"ensors":11893,"perm":11894,"ĠLevel":11895,"pas":11896,"agger":11897,"ICS":11898,"Ġder":11899,"ĠModal":11900,"Ġfee":11901,"pmd":11902,"tz":11903,"007":11904,"promise":11905,"Skill":11906,"swer":11907,"sequ":11908,"ifec":11909,"Ġeverything":11910,"Cert":11911,"PHA":11912,"Hi":11913,"Ġconverted":11914,"Python":11915,"Resize":11916,"CMP":11917,"Serializable":11918,"ĠSection":11919,"Ġband":11920,"bal":11921,"ĠSIGNAL":11922,"Btn":11923,"ÐµÐ½Ð¸":11924,"keywords":11925,"unix":11926,"ien":11927,"spar":11928,"criteria":11929,"refox":11930,",(":11931,"NAMESPACE":11932,"]/":11933,"nick":11934,":=":11935,"ham":11936,"DECLARE":11937,"SEND":11938,"mlink":11939,"Ġdoing":11940,"CLR":11941,"fact":11942,"REQUI":11943,"ĠVec":11944,"ializes":11945,"LEASE":11946,"Ġannotation":11947,"ÃĮ":11948,"ĠOV":11949,"ĠChrome":11950,"hashCode":11951,"bw":11952,"ĠARE":11953,"æģ¯":11954,"IW":11955,"SEQ":11956,"tableblock":11957,"ifecycle":11958,"Branch":11959,"ĊĉĉĉĉĉĠĠĠ":11960,"Ġscene":11961,"Ġsimply":11962,"MAT":11963,"ĠCALL":11964,"aises":11965,"ĠClose":11966,"Ġ'../":11967,"States":11968,"declare":11969,"[];":11970,"TYPES":11971,"ova":11972,"STM":11973,"ĠSK":11974,"Ġmutex":11975,"Interrupt":11976,"èĢħ":11977,"ises":11978,"Locator":11979,"Attachment":11980,"ĠBU":11981,"Cr":11982,"chapter":11983,"ĠCompute":11984,"tu":11985,"ĠSyntax":11986,"Ġverbose":11987,"getDefault":11988,"Ġexceptions":11989,"ĠAccount":11990,"Completed":11991,"Ġfact":11992,"iming":11993,"Ġbot":11994,"Ġ-&":11995,"REN":11996,"TASK":11997,"Ġprep":11998,"iggers":11999,"ĠSuite":12000,"å®ŀ":12001,"pager":12002,"Ġcolors":12003,">\",":12004,"ategor":12005,"143":12006,"MLE":12007,"Sn":12008,"Ġalignment":12009,"oracle":12010,"provide":12011,"Ġsever":12012,"140":12013,"ĉĠĠ":12014,"Ġblank":12015,"ĠHW":12016,"sourceforge":12017,"<=":12018,"digest":12019,"Particle":12020,"è±":12021,"_(\"":12022,"ofs":12023,"Like":12024,"mes":12025,"ighbor":12026,"RCC":12027,"PACKET":12028,"ech":12029,"Ġ):":12030,"usted":12031,"ãģ¯":12032,"many":12033,"åŁ":12034,"Maximum":12035,"party":12036,"Hist":12037,"Ġfurther":12038,"prod":12039,"charAt":12040,"ĠDSP":12041,"ENSOR":12042,"ĠSim":12043,"/****************************************************************":12044,"ida":12045,"Ġpermit":12046,"secure":12047,"openc":12048,"Ġviews":12049,"ĠSql":12050,"ĠAF":12051,"\",,\"":12052,"Â®":12053,"Ġincorrect":12054,"sqrt":12055,"Ġsimilar":12056,"acade":12057,"Serial":12058,"Ġsubstr":12059,"Ġ01":12060,"Instances":12061,"listing":12062,"Ġregistry":12063,"Ãģ":12064,"Ġconstraints":12065,"Ġequals":12066,"Ġcombin":12067,"hour":12068,"Ġbuttons":12069,"resence":12070,"Receiver":12071,"dimension":12072,"guest":12073,"ĠUTF":12074,"HY":12075,"Vars":12076,"Credentials":12077,"xref":12078,"Ġce":12079,"caret":12080,"ãĤ¯":12081,"keyboard":12082,"320":12083,"ddd":12084,"ĠInstall":12085,"ĠRow":12086,"iro":12087,"constants":12088,"PWM":12089,"receive":12090,"ĠStack":12091,"Conversion":12092,"ĠCONSEQUENTIAL":12093,"Ġdependency":12094,"=\"{":12095,"oxy":12096,"cade":12097,"Ãħ":12098,"Ġfreq":12099,"ĠJust":12100,"Picker":12101,"streaming":12102,"uer":12103,"Ġstroke":12104,"logical":12105,"EAR":12106,"Ġouter":12107,"Ġsq":12108,"204":12109,"Colors":12110,"chant":12111,"pective":12112,"æĢ§":12113,"dater":12114,"ido":12115,"Ġhar":12116,"Links":12117,"mozilla":12118,"cas":12119,"lated":12120,"album":12121,"spond":12122,"quir":12123,"Ġheap":12124,"bn":12125,"Ġreleased":12126,"Rob":12127,"Front":12128,"Ġrenderer":12129,"Times":12130,"woo":12131,"ĠINDIRECT":12132,"Utilities":12133,"iration":12134,"Ġvisibility":12135,"ĠNav":12136,"=-=-=-=-":12137,"ĠUSART":12138,"Utility":12139,"assertFalse":12140,"Ġcodes":12141,"iated":12142,"å½ĵ":12143,"Ġhard":12144,"crc":12145,"012":12146,"FITS":12147,"lbl":12148,"Ġbalance":12149,"Backup":12150,"dac":12151,"weak":12152,"ITCH":12153,"velope":12154,"compatible":12155,"INGEMENT":12156,"STAMP":12157,"lw":12158,"requests":12159,"Unlock":12160,"\">#":12161,"VARI":12162,"ìĹ":12163,"fold":12164,"}}</":12165,"Ġ600":12166,"Ġevt":12167,"Linked":12168,"Requests":12169,"çĶŁ":12170,"EXCEPT":12171,"čĊĉĉĉĉĉĉĉĉĉĉ":12172,"\"=>":12173,"Po":12174,"Sensor":12175,"ferred":12176,"[\\":12177,"traits":12178,"vl":12179,"atial":12180,"Ġ*)(":12181,"inct":12182,"ools":12183,"Î·":12184,"LAPI":12185,"ĠJan":12186,"ETH":12187,"Ġĉĉ":12188,"Ġ[%":12189,"SHARE":12190,"WC":12191,"ĠSort":12192,"vlan":12193,"Dataset":12194,"ĠBind":12195,"Ġmalloc":12196,"hljs":12197,"Ġprecision":12198,"(?:":12199,"Keyboard":12200,"llum":12201,"čĊčĊĉĉĉ":12202,"Ġ46":12203,"Ġintent":12204,"Ġreplaced":12205,"ĠSecurity":12206,"00000002":12207,"DEL":12208,"packed":12209,"Ġhandles":12210,"Ġdifference":12211,"ĠNothing":12212,"čĊĉĉĉĉĉĉĉĉĉ":12213,"Ġwalk":12214,"Initialized":12215,"doxygen":12216,"Rotation":12217,"Mer":12218,"Ġnumer":12219,"Rank":12220,"PIPE":12221,"statdata":12222,"Ġanchor":12223,"calculate":12224,"æĪĸ":12225,"Ġremoves":12226,"Ġ':":12227,"MY":12228,"EqualTo":12229,"Ġsell":12230,"reports":12231,"Ġattached":12232,"ACCE":12233,"sink":12234,"Ġ!$":12235,"Predicate":12236,"OO":12237,"Buttons":12238,"wg":12239,":**":12240,"ĠRect":12241,"ĠEnv":12242,"cpus":12243,"Ġleave":12244,"çĽ®":12245,"ERS":12246,"117":12247,"ATTRIBUTE":12248,"Seg":12249,"ĠLook":12250,"Ġcontained":12251,"uffle":12252,"ĠShort":12253,"Records":12254,"ĠRuntimeException":12255,"MID":12256,"lhs":12257,"////////////":12258,"ktop":12259,"abab":12260,"processing":12261,"Ġunused":12262,"DEST":12263,"Ġindicate":12264,"ssh":12265,"restart":12266,"æĮĩ":12267,"cmos":12268,"asis":12269,"ATIVE":12270,"Ãĭ":12271,"Cut":12272,"Fire":12273,"Ġareas":12274,"ÐŁ":12275,"Ġ101":12276,"rowsers":12277,"TextField":12278,"åŀĭ":12279,"uck":12280,"Ġâ":12281,"Ġscr":12282,"handlers":12283,"GF":12284,"118":12285,"ACC":12286,"ANG":12287,"ĠIterator":12288,"ĠSLOT":12289,"ÃĤ":12290,"macro":12291,"Gradient":12292,"ih":12293,"Ġlisteners":12294,"Ġ'');":12295,"ODS":12296,"Article":12297,"swith":12298,"åľ°":12299,"Dispatcher":12300,"Ġ//$":12301,"Ġmdss":12302,"always":12303,"ele":12304,"vd":12305,"%%%%%%%%%%%%%%%%":12306,"Ġinstructions":12307,"Ops":12308,"Ġeas":12309,"=\"$":12310,"SIM":12311,"reens":12312,"Your":12313,"ĠMPI":12314,"Ġmapped":12315,"May":12316,"ĠfileName":12317,"ĠTw":12318,"NOTE":12319,"splice":12320,"Ġhi":12321,"Ġ}));":12322,"NOP":12323,"getElementsByTagName":12324,"ĠCY":12325,"measure":12326,"Attack":12327,"figure":12328,"ASF":12329,"elcome":12330,"anning":12331,"aque":12332,"++++++++":12333,"Ġ[-":12334,"è°":12335,"nat":12336,"lips":12337,"finity":12338,"IsNull":12339,"Css":12340,"vation":12341,"ceptor":12342,"REGION":12343,"å¥":12344,"HB":12345,"VERT":12346,"ĠMI":12347,"ĠJOIN":12348,"pal":12349,"asn":12350,"Ġmoment":12351,"popover":12352,"workspace":12353,"Ġlive":12354,"normalize":12355,"ĠTimer":12356,"racle":12357,"IPV":12358,"magic":12359,"006":12360,"sites":12361,"olicies":12362,"preferred":12363,"Ã´":12364,"[%":12365,"Tokens":12366,"retch":12367,"è±¡":12368,"LB":12369,"Cover":12370,"vif":12371,"kn":12372,"Ġdays":12373,"%</":12374,"2009":12375,"::::":12376,"ĊĠĠĠĠĠĠĠĠĠĠĠĠĠĠĠĠĠĠĠĠĠĠĠĠĠĠĠĠĠĠĠĠĠĠĠĠĠĠĠĠĠĠĠĠĠĠĠĠĠĠĠĠĠĠĠĠĠĠĠ":12377,"ĠREQ":12378,"Ġquick":12379,"ĠMY":12380,"ĠSUCH":12381,"ils":12382,"urls":12383,"Symbols":12384,"Ġ$('.":12385,"ĠENC":12386,"tic":12387,"Ġí":12388,"Radio":12389,"Ns":12390,"360":12391,"Ġvs":12392,"ĠYY":12393,"spawn":12394,"IGENCE":12395,"wire":12396,"ĠNon":12397,"umask":12398,"ounded":12399,"nodeType":12400,"ĠPIN":12401,"permalink":12402,"ISED":12403,"bars":12404,"supports":12405,"Ã·":12406,"ĠTEXT":12407,";,":12408,"ĠCONT":12409,"135":12410,"ĠTrigger":12411,"Composite":12412,"Invoke":12413,"ĠMust":12414,"FM":12415,"å°±":12416,"ĠPROFITS":12417,"PKG":12418,"QT":12419,"MAGIC":12420,"Unicode":12421,"GLIGENCE":12422,"Ġ@{":12423,"laps":12424,"lr":12425,"SPEED":12426,"izz":12427,"pane":12428,"thrift":12429,"eeee":12430,"=======":12431,"prefs":12432,"Ġ58":12433,"Ġii":12434,"Ġguint":12435,"orrent":12436,"Indices":12437,"BOARD":12438,"WEBPACK":12439,"STIT":12440,"iser":12441,"Ġmaybe":12442,"BOOLEAN":12443,"čĊĉĠĠĠ":12444,"Ġtail":12445,"222":12446,"CLEAR":12447,"Ġpd":12448,"overn":12449,"sembler":12450,"stdio":12451,"azy":12452,"__((":12453,"Ġbp":12454,"CIDENTAL":12455,"PRIVATE":12456,"aria":12457,"yaml":12458,"à¯į":12459,"Ġwake":12460,"combo":12461,"ĠEnsure":12462,"ĠFL":12463,"coverage":12464,"Ġoccurs":12465,"ashboard":12466,"Ġexplicitly":12467,"Ġrtx":12468,"thd":12469,"cq":12470,"Ġgint":12471,"userid":12472,"INESS":12473,"Ġask":12474,"Pix":12475,"Ġdebugging":12476,"inator":12477,"CV":12478,"Cart":12479,"æĥ":12480,"IMPORTED":12481,"Ġflash":12482,"Ġhereby":12483,"Ġreceiver":12484,"Ġnv":12485,"prom":12486,"ĠonMouse":12487,"Permissions":12488,">(\"":12489,"tran":12490,"ĠSkip":12491,"Foreign":12492,"Decor":12493,"Ġsecret":12494,"ĠTeam":12495,"Cnt":12496,"ISTS":12497,"Channels":12498,"Ġsqlite":12499,"Opcode":12500,"Finished":12501,"ToolStrip":12502,"Ġposs":12503,"Ġbeginning":12504,"Gst":12505,"terms":12506,"raise":12507,"compiled":12508,"Original":12509,"Ġtt":12510,"ĠAdds":12511,"ĠLOSS":12512,"OnSearch":12513,"ĠASF":12514,"ĠFin":12515,"take":12516,"Ġcertificate":12517,"LineNo":12518,"Ġcout":12519,"There":12520,"Ġreproduce":12521,"aud":12522,"amd":12523,"ĠNEGLIGENCE":12524,"gbe":12525,"Ġpackets":12526,"Rew":12527,"Ã§Ã£o":12528,"AnyRef":12529,"UREMENT":12530,"éľ":12531,"ĠEC":12532,"Fatalf":12533,"156":12534,"TRACK":12535,"SubMenu":12536,"Ġmarked":12537,"attrib":12538,"Ġcare":12539,"INK":12540,"cfs":12541,"ĊĠĠĠĠĠĠĠĠĠĠĠĠĠĠĠĠĠĠĠĠĠĠĠĠĠĠĠĠĠĠĠĠĠĠĠĠĠĠĠĠĠĠĠĠĠĠ":12542,"TypeId":12543,"644":12544,"shader":12545,"ĠContact":12546,"CLOSE":12547,"aled":12548,"ä½ł":12549,"Persistent":12550,"LEX":12551,"Ġ@\"":12552,"ĠAdmin":12553,"psi":12554,"playback":12555,"Ġrotation":12556,"Ġexplanation":12557,"Pad":12558,"osh":12559,"Dlg":12560,"Ġidentity":12561,"TypeName":12562,"DOUBLE":12563,"ĠQue":12564,"ÂĥÂ":12565,"ĠRule":12566,"()]":12567,"ĠINCIDENTAL":12568,"Er":12569,"ĠEnum":12570,"Partial":12571,"Pur":12572,"scheduler":12573,"alancer":12574,"\")),":12575,"Matches":12576,"âĸĪ":12577,"ĠRandom":12578,"Indent":12579,"Stamp":12580,"Ġreturning":12581,"ĠStreet":12582,"/:":12583,"Ġ'*":12584,"ALOG":12585,"ĠRequired":12586,"Tax":12587,"Mutex":12588,"ç¬¬":12589,"capacity":12590,"Ġunderlying":12591,"cpufreq":12592,"444":12593,"tabEnd":12594,"Ġdeclaration":12595,"INFRINGEMENT":12596,"Chars":12597,"}).":12598,"adapt":12599,"Ġ65":12600,"DWORD":12601,"Ġfour":12602,"æĪ·":12603,"micro":12604,"ĠTC":12605,"ĠDirect":12606,"tras":12607,"=$(":12608,"onal":12609,"Ġslave":12610,"Ġ39":12611,"Numeric":12612,"ĠCONNECTION":12613,"Ġbs":12614,"ĠTransaction":12615,"ÅĤ":12616,"gfx":12617,"Question":12618,"æ±":12619,"*}":12620,"Ġcredentials":12621,"Workspace":12622,"Ġrecent":12623,"Fast":12624,"Pay":12625,"RR":12626,"æľĢ":12627,"ĠDEV":12628,"urer":12629,"ĠValues":12630,"Ġllvm":12631,"Ġpreviously":12632,"Ġwarnings":12633,"åĪĹ":12634,")):":12635,"Connected":12636,"Ġattack":12637,"ĠLocation":12638,"ĊĠĠĊĠĠĠ":12639,"WLAN":12640,"Ġuuid":12641,"URA":12642,"microsoft":12643,"å¤ļ":12644,"Authorization":12645,"Lng":12646,"scalar":12647,"|\\":12648,"GetValue":12649,"Ġindicating":12650,"Ġ*/;":12651,"ĠAST":12652,"Ġsymbols":12653,"è·":12654,"Views":12655,"Void":12656,"HasBeen":12657,"MOTE":12658,"opsis":12659,"memp":12660,"META":12661,"Finder":12662,"ĠMeta":12663,"ĠDown":12664,"=\"../_":12665,"386":12666,"\":{":12667,"ĠBl":12668,"prog":12669,"ĠArgs":12670,"PAT":12671,"ĠSTRICT":12672,"Ġextent":12673,"ĠEVEN":12674,"ticket":12675,"romium":12676,"Ġles":12677,"Swap":12678,"ĠAUTHORS":12679,"Utf":12680,"Traits":12681,"Ġsl":12682,"ĠEngine":12683,"Ð»Ð¸":12684,"getContext":12685,"Ġregulator":12686,"å»º":12687,"grpc":12688,"Ġtaken":12689,"descr":12690,"Ġ]);":12691,"ban":12692,"Ġlogical":12693,"ĠPOSS":12694,"xr":12695,"frequency":12696,"Ġtm":12697,"Ġtools":12698,"Ġboundary":12699,"Ġpreg":12700,"Ġvariant":12701,"ĠEntry":12702,"mploy":12703,"sprite":12704,"Ġdeferred":12705,"åıĤ":12706,"Ġcontrols":12707,"Opts":12708,"ĠPlay":12709,"Ġti":12710,"directive":12711,"666":12712,"bulk":12713,"appro":12714,"NN":12715,"encoded":12716,"HEL":12717,"energy":12718,"Ġfully":12719,"IDLE":12720,"Ġ].":12721,"ĠCOM":12722,"ĠINTEGER":12723,"\"):":12724,"Ġdeep":12725,"legacy":12726,"Ġ/=":12727,"Hal":12728,"Circle":12729,"Ġbt":12730,"Ð½Ð¸":12731,"udy":12732,"alg":12733,"olation":12734,"ermin":12735,"ĠOB":12736,"PWR":12737,"{})":12738,"Quick":12739,"student":12740,"Ġstride":12741,"etter":12742,"splus":12743,"ĠADVISED":12744,"Ġunlock":12745,"Ġ127":12746,"Ġ@@":12747,"trait":12748,"\">,</":12749,"Exchange":12750,"emy":12751,"ĉĠĠĠ":12752,"Ġmetrics":12753,"IgnoreCase":12754,"å¾Ĺ":12755,"IMED":12756,"nan":12757,"\"]:":12758,"Ġld":12759,"ĠArial":12760,"Bot":12761,"]}":12762,"Ġreduce":12763,"ĠSIG":12764,"logies":12765,"Ġhigher":12766,"paint":12767,"Latin":12768,"levant":12769,"versation":12770,"gruppen":12771,"gcc":12772,"MODEL":12773,"2021":12774,"ĠTitle":12775,"éĹ´":12776,"ĠSetting":12777,"omial":12778,"drive":12779,"Ġgetting":12780,"PyObject":12781,"119":12782,"Band":12783,"è¿Ľ":12784,"sourceLineNo":12785,"ALI":12786,"VOS":12787,"ĠPop":12788,"Capacity":12789,"/',":12790,"PED":12791,"166":12792,"011":12793,"Permalink":12794,"Ġcoordinate":12795,"EXTENSION":12796,"STITUTE":12797,"lluminate":12798,"188":12799,"intf":12800,"à¦¿":12801,"RW":12802,"atern":12803,"ria":12804,"orange":12805,"disconnect":12806,"CFLAGS":12807,"Dry":12808,"Arc":12809,"čĊčĊĠĠĠĠĠĠĠĠĠĠĠĠĠĠĠĠĠĠĠĠĠĠĠĠĠĠĠĠĠĠĠĠĠĠĠ":12810,"rename":12811,"MEMBER":12812,"Ġsit":12813,"NumberOf":12814,"Ġscheme":12815,"Codes":12816,"ĠExpr":12817,")];":12818,"ĠCallback":12819,"Tre":12820,"ithmet":12821,"Ġkeyword":12822,"analytics":12823,"Behavior":12824,"Ġprocessor":12825,"wpdb":12826,"Arrow":12827,"ards":12828,"classic":12829,"-'":12830,"Zend":12831,"Ġ}},":12832,"Closed":12833,"ĠWP":12834,"pwr":12835,"REACH":12836,"ners":12837,"OperationException":12838,"Ã¹":12839,"ĠAccording":12840,"secs":12841,"Ġ}.":12842,"dead":12843,"globals":12844,"Logging":12845,"jit":12846,"ĠCG":12847,"getParent":12848,"far":12849,"FORCE":12850,"Ġ83":12851,"Catalog":12852,"152":12853,"8080":12854,"Ġvi":12855,"tech":12856,"dddd":12857,"mel":12858,"ĠBrowser":12859,"XGBE":12860,"udev":12861,"')).":12862,"ĠPOSSIBILITY":12863,"Ġhaving":12864,")*_":12865,"IOS":12866,"ĠUniversity":12867,"åįķ":12868,"Pub":12869,"LOCATION":12870,"Ġke":12871,"zier":12872,"ĠCFG":12873,"Throwable":12874,"suite":12875,"Express":12876,"mkdir":12877,"ĠMask":12878,"Ġidle":12879,"Best":12880,"à¤¤":12881,"gm":12882,"Ġintern":12883,"ĠProp":12884,"ĠDBUG":12885,"PROM":12886,"ĠINTERRUPT":12887,"ĠEXE":12888,"busy":12889,"LAIMED":12890,"BOOST":12891,"ĠWAY":12892,"nfs":12893,"CDC":12894,"Creation":12895,"ĠIXGBE":12896,"Ġtrying":12897,"asList":12898,"invert":12899,"Ġ330":12900,"DIE":12901,"2008":12902,"ĠED":12903,"ternative":12904,"Ġdead":12905,"MF":12906,"Implementation":12907,"jb":12908,"Without":12909,"ĠOperation":12910,"afka":12911,"kl":12912,"SEG":12913,"ĠCur":12914,"tooth":12915,"ĠĠĠĠĠĠĠĠĠĠĠĠĠĠĠĠĠĠĠĠĠĠĠĠĠĠĠĠĠĠĠĠĠĠ":12916,"quant":12917,"MEDIA":12918,"health":12919,"ictim":12920,"eper":12921,"Unt":12922,"RAW":12923,"lux":12924,"ĠETH":12925,"232":12926,"čĊĠĠĠĠĠĠĠĠĠĠĠĠĠĠĠĠĠ":12927,"ãģĮ":12928,"STY":12929,"149":12930,"ķãĤ":12931,"Abs":12932,"ĠSERVICES":12933,"hbase":12934,"Ġaccompany":12935,"Ġlinked":12936,"åºĶ":12937,"vention":12938,"ĠSELECT":12939,"Ġrq":12940,"Ġfunctionality":12941,",\\":12942,"sorted":12943,"clarations":12944,"ĠFRAME":12945,"openssl":12946,"Culture":12947,"erry":12948,"ĠsetTimeout":12949,"pagation":12950,"otg":12951,"čĊčĊĠĠĠĠĠĠĠĠĠĠĠĠĠĠĠĠĠĠĠĠĠĠĠĠĠĠĠĠĠĠĠĠĠĠĠĠĠĠĠĠĠĠĠ":12952,"typ":12953,"Ġvars":12954,"setEnabled":12955,"ĠHigh":12956,"Ġimpro":12957,"Vertical":12958,"HasBeenSet":12959,"defs":12960,"Ġ2004":12961,"itecture":12962,"DRIVER":12963,"ĠSTATE":12964,"146":12965,"æ²":12966,"ĠFunctions":12967,"Ú¾":12968,"Ġadds":12969,"targets":12970,"ĠTx":12971,"USART":12972,"Inventory":12973,"adv":12974,"ĠMS":12975,"hasNext":12976,"Ġequivalent":12977,"ĊĠĠĠĠĠĠĠĠĠĠĠĠĠĠĠĠĠĠĠĠĠĠĠĠĠĠĠĠĠĠĠĠĠĠĠĠĠĠĠĠĠĠĠĠĠĠĠĠ":12978,"Ġsed":12979,"Sibling":12980,"SERVED":12981,"EFFECT":12982,"ĠAWS":12983,"ĠÄ":12984,"Uuid":12985,"loose":12986,"jackson":12987,"Expand":12988,"FFF":12989,"otes":12990,"Ġothers":12991,"Immutable":12992,"iding":12993,"Ġguarante":12994,"ball":12995,"INITIAL":12996,"ĠTab":12997,"WEVER":12998,"artist":12999,"ãģ¨":13000,"åĲĮ":13001,"126":13002,"ATOM":13003,"(?":13004,"ooth":13005,"/******/":13006,"Ġroll":13007,"ĠTy":13008,"ĠNUM":13009,"ĠChecks":13010,"428":13011,"éĥ":13012,"ĠALL":13013,"157":13014,"ĠContribut":13015,"isl":13016,"çĻ":13017,"ĠHOWEVER":13018,"tion":13019,"nio":13020,"ddy":13021,"Attrs":13022,"ibly":13023,">{{":13024,"Ġtooltip":13025,"rmi":13026,"uniform":13027,"Ġpay":13028,"COLUMN":13029,"fre":13030,"ĠPass":13031,"onto":13032,"ĠsetUp":13033,"Ġcompatibility":13034,"PROCESS":13035,"parseInt":13036,"Ryh":13037,"DAPM":13038,"ĠCF":13039,"operands":13040,"Ġholder":13041,"éĽ":13042,"consumer":13043,"iommu":13044,"crtc":13045,"Ġpassphrase":13046,"trav":13047,"Ġssl":13048,"iance":13049,"ALPHA":13050,"checker":13051,"Creator":13052,"SAMPLE":13053,"Ġlik":13054,"ENODEV":13055,"midi":13056,"ography":13057,"Ġ\"@":13058,"gray":13059,"Ġcpufreq":13060,"Ġnetdev":13061,"áŀ":13062,"ocial":13063,"121":13064,"Ġsel":13065,"Orientation":13066,"Ġissues":13067,"modify":13068,"ĠBUSINESS":13069,"har":13070,"editable":13071,"icial":13072,"Ġpkt":13073,"ulong":13074,"ERRIDE":13075,"uzz":13076,"ĠDest":13077,"ĠIEEE":13078,"sizei":13079,"dian":13080,"Ġaccompanying":13081,"zalloc":13082,"170":13083,"Ġprototype":13084,"inheritDoc":13085,"304":13086,"timing":13087,"Ipv":13088,"Vol":13089,"ĠGOODS":13090,"å§":13091,"Ġupgrade":13092,"poss":13093,"Ġpkg":13094,"ĊĊĠĠĠĠĠĠĠĠĠĠĠĠĠ":13095,"IBLE":13096,"USTOM":13097,"redis":13098,"ĠTHEORY":13099,"KP":13100,"Ġ*__":13101,"smp":13102,"Ġapplications":13103,"Ġupon":13104,"assignment":13105,"Answer":13106,"writeln":13107,"Defaults":13108,"čĊĠĠĠĠĠĠĠĠĠĠĠĠčĊĠĠĠĠĠĠĠĠĠĠĠĠĠĠĠ":13109,"IOCTL":13110,"rav":13111,"Ġones":13112,"Ġsubscription":13113,"Ġchan":13114,"2001":13115,"calls":13116,"aren":13117,"etime":13118,"jpeg":13119,"Ġdc":13120,"Flush":13121,"ados":13122,"keyframes":13123,"Compatible":13124,"Ġcat":13125,"Ġhint":13126,"éħ":13127,"NER":13128,"MPLARY":13129,"Ġrendered":13130,"nonatomic":13131,"igu":13132,"lusplus":13133,"^^":13134,"ä»£":13135,"ĠPROCUREMENT":13136,"()}":13137,"Ġri":13138,"VD":13139,"æĸ¹æ³ķ":13140,"beans":13141,"EXPR":13142,"ADMIN":13143,"rtx":13144,"formats":13145,"ku":13146,"ĠSUBSTITUTE":13147,"gd":13148,"ĠTypeError":13149,"UCH":13150,"kbd":13151,"Ġsf":13152,"sky":13153,"SUS":13154,"ithmetic":13155,"manifest":13156,"NAM":13157,"ĠPublished":13158,"VERIFY":13159,"REAL":13160,"Based":13161,"cdev":13162,"Ġlimitation":13163,"\")))":13164,"ĠEXEMPLARY":13165,"Ġconsidered":13166,"arity":13167,"alic":13168,"enus":13169,"Ġmetric":13170,"ĠMember":13171,"allocated":13172,"navBar":13173,"rotation":13174,"Ġ\"&":13175,"wa":13176,"shake":13177,"ONENT":13178,"Ġ$@":13179,"ssaging":13180,"THIS":13181,"xfs":13182,"Ġratio":13183,"ĠCAUSED":13184,"ltr":13185,"ĠPower":13186,"ĠPacket":13187,"italic":13188,"Ġnumeric":13189,"Ġsmaller":13190,"ĠFace":13191,"Compute":13192,"129":13193,"åħ¶":13194,"nodeName":13195,".')":13196,"xi":13197,"Ġ'--":13198,"Pref":13199,"sessment":13200,"LK":13201,"specs":13202,"Ġrand":13203,"hard":13204,"137":13205,"bias":13206,"INET":13207,"Words":13208,"154":13209,"Ġdirective":13210,"uary":13211,"mapped":13212,"66666667":13213,"Ġtogether":13214,"ATFORM":13215,"Fi":13216,"CARD":13217,"Ġpor":13218,"puts":13219,"138":13220,"THE":13221,"Lists":13222,"Ġgfx":13223,"matched":13224,"Ġipv":13225,"roles":13226,"Getter":13227,"čĊĠĠĠĠĠĠĠĠčĊĠĠĠĠĠĠĠ":13228,"ldap":13229,"Cho":13230,"LBL":13231,"Ġsockaddr":13232,"364":13233,"srcdir":13234,"ĠATTR":13235,"Ġtv":13236,"ĠGTK":13237,"Overflow":13238,".';":13239,"éľĢ":13240,"Ġack":13241,"ĠINTERRUPTION":13242,"FAT":13243,"loads":13244,"Ġfamily":13245,"ĠEmber":13246,"curve":13247,"0200":13248,"Wire":13249,"ÐºÐ°":13250,"Eval":13251,"ĠhashCode":13252,"Ġorient":13253,"fab":13254,"Io":13255,"ëĬ":13256,"ĠĠĠĠĠĠĠĠĠĠĠĠĠĠĠĠĠĠĠĠĠĠĠĠĠĠĠĠĠĠĠĠĠĠĠ":13257,"DUCT":13258,"Adjust":13259,"Ð°Ðº":13260,"Ġmt":13261,"camel":13262,"CONN":13263,"allenge":13264,"BOOT":13265,"Ġwarn":13266,"Notes":13267,"Ġthing":13268,"MMC":13269,"Aws":13270,"Ġ250":13271,"hdmi":13272,"ssid":13273,"eting":13274,"arest":13275,"/************************************************************************":13276,"Ġ180":13277,"DISP":13278,"136":13279,"ĠDISCLAIMED":13280,"decoder":13281,"SZ":13282,"ĠPut":13283,"EXTERN":13284,"mgmt":13285,"Mixin":13286,"production":13287,"Ġpix":13288,"ãģª":13289,"enticated":13290,"Ġsuite":13291,"LCD":13292,"ĠFailed":13293,"ĠEditor":13294,"jiffies":13295,"Ġ'.$":13296,"accord":13297,"SETTING":13298,"ĠAtt":13299,"ĠSOCK":13300,"expanded":13301,"Ġ2003":13302,"::__":13303,"Ġ\"__":13304,"ÂµÃĦ":13305,"Ġdescribed":13306,"àº":13307,"mos":13308,"ãĢĤ</":13309,"GINE":13310,"Ġinterfaces":13311,"ĠGUI":13312,"ä½į":13313,"ĠPHY":13314,"TAB":13315,"UDP":13316,"Ġ'\\\\":13317,"resentation":13318,"165":13319,"Comments":13320,"iNdEx":13321,"Ġcond":13322,"Ġtfoot":13323,"SCALE":13324,"lectron":13325,"statsmodels":13326,"enqueue":13327,"Ġfr":13328,"ĠRemarks":13329,"åĮħ":13330,"è¯·":13331,"locations":13332,"ĠBar":13333,"1307":13334,"Ġir":13335,"dget":13336,"erc":13337,"Ġarbitrary":13338,"Design":13339,":{":13340,"ĠBOOL":13341,"ĠMACH":13342,"userId":13343,"206":13344,"ĠVALUE":13345,"Ġanalysis":13346,"å°Ĩ":13347,"}',":13348,"Ġomap":13349,"THRESH":13350,"oauth":13351,"Ġ(@":13352,"viewer":13353,"Ġsatis":13354,"visual":13355,"nm":13356,"ills":13357,"stm":13358,"lineno":13359,"Ġfade":13360,"Illegal":13361,"Î»":13362,"åº¦":13363,"Ġsil":13364,"Ġwrapped":13365,"Ġresolution":13366,"(\"\");":13367,"hooks":13368,"ĠAPIENTRY":13369,"')),":13370,"paramname":13371,"Ġdimensions":13372,"Ġplus":13373,"spot":13374,"ĠBEG":13375,"vin":13376,"Ġlocked":13377,"RU":13378,"Ġ*((":13379,"ĠInclude":13380,"ically":13381,"}`":13382,"ìĦ":13383,"ĊĊĉĉĉĉĉĉ":13384,"ContentType":13385,"foundation":13386,"ĠArt":13387,"Ġ512":13388,"048":13389,"ĠCalculate":13390,"ViewById":13391,"å¦Ĥæŀľ":13392,"untu":13393,"Ġglyphicon":13394,"Ġopcode":13395,"omap":13396,"Ġunicode":13397,"Ġresize":13398,":<":13399,"Ġsg":13400,"xhci":13401,"Ġparallel":13402,"}\")":13403,"Ġseen":13404,"âķ":13405,"sqlite":13406,"Observable":13407,"'][$":13408,"regulator":13409,"ĠBT":13410,"weet":13411,"RP":13412,"navBarCell":13413,"Ġtemplates":13414,"Must":13415,"Ġdepends":13416,"Ġnumpy":13417,"achable":13418,"Ġcho":13419,"decor":13420,"Ġgcc":13421,"Ġoccur":13422,"ĠShape":13423,"TextBox":13424,"Indicator":13425,"Ġextended":13426,"Ġpurpose":13427,"DAO":13428,"Ġportions":13429,"UME":13430,"water":13431,"Ġdetection":13432,"ORITY":13433,"snprintf":13434,"Ð¾ÑĤ":13435,"Ġmid":13436,"2006":13437,"opensource":13438,"Started":13439,"Ġruns":13440,"\"'":13441,"tensorflow":13442,")<":13443,"Ġnd":13444,"ĠBut":13445,"PHPExcel":13446,"qa":13447,"ĠAfter":13448,"ĠShared":13449,"Ġsound":13450,"900":13451,"ĠĠĠĠĠĠĠĠĠĠĠĠĠĠĠĠĠĠĠĠĠĠĠĠĠĠĠĠĠĠĠĠĠ":13452,"(#":13453,"started":13454,"Ġgeneration":13455,"DSP":13456,"bes":13457,"manage":13458,"Ġfar":13459,"NullType":13460,"Ġphp":13461,"Ġasc":13462,"URATION":13463,"Handlers":13464,"haviour":13465,"getNode":13466,"Will":13467,"ima":13468,"igrations":13469,"Ġcent":13470,"Ġcmp":13471,"æĹ¥":13472,"Ġ10000":13473,"::_('":13474,"Ġxmm":13475,"Ġspaces":13476,"wiphy":13477,"Sources":13478,"nullptr":13479,"Ġoutputs":13480,"compressed":13481,"nic":13482,"Ġcells":13483,"ĠCharacter":13484,"browse":13485,"nid":13486,"urst":13487,"Ġgreen":13488,"shiv":13489,"ĠSingle":13490,"å¯¹è±¡":13491,"RV":13492,"Resolution":13493,"330":13494,"Psi":13495,"callbacks":13496,"PREC":13497,"Ġtriggered":13498,"Pen":13499,"deps":13500,"×ľ":13501,"scriptors":13502,"outh":13503,"Ġ\"/\"":13504,"ĠHD":13505,"ICON":13506,"ĠTE":13507,"avail":13508,"reloc":13509,"Ġresolved":13510,"hibernate":13511,"CALLBACK":13512,"Ġstatistics":13513,"trap":13514,"Ġletter":13515,"elt":13516,")((":13517,"ĠUInt":13518,"åĽ¾":13519,"fee":13520,"NLS":13521,"CharField":13522,"Ġpersons":13523,"third":13524,"LET":13525,"uess":13526,"optim":13527,"Issue":13528,"Ġrd":13529,"Ġhdr":13530,"limited":13531,"ymer":13532,"Ġaccum":13533,"ĠStructure":13534,"Ġserialized":13535,"Launch":13536,"tele":13537,"hat":13538,"åĬ¡":13539,">]":13540,"ĠBinary":13541,"hyper":13542,"Country":13543,"pretty":13544,"jump":13545,"UGIN":13546,"Ġplane":13547,"')[":13548,"ÐµÐ¼":13549,"ATEG":13550,"dll":13551,"ĠCLAIM":13552,"OPTIONS":13553,"Live":13554,"getItem":13555,"ĠSVG":13556,"around":13557,"Repo":13558,"Ġintel":13559,"ï¿":13560,"Ġscoped":13561,"Ring":13562,"Calcul":13563,"151":13564,"thernet":13565,"ĠApply":13566,"clusion":13567,"WT":13568,"Ġstdout":13569,"software":13570,"ĠUtils":13571,"Ġcrypto":13572,"Multip":13573,"was":13574,"Ð½Ð¾":13575,"Ġmoved":13576,"ĠPOST":13577,"Ġwhom":13578,"PLACE":13579,"ĠCl":13580,"mega":13581,"æ¡":13582,"Ġscheduler":13583,"Ġformats":13584,"Ġdocuments":13585,"Ġpopup":13586,"wakeup":13587,"BPF":13588,"TAIL":13589,"Ġ53":13590,"247":13591,"APIENTRY":13592,"Ġdirty":13593,"Serialization":13594,"Ġlhs":13595,"currentTime":13596,"ivo":13597,"čĊčĊĠĠĠĠĠ":13598,"Ð¶":13599,"Ġdet":13600,"Round":13601,"226":13602,"$('#":13603,"Aff":13604,"Ġcos":13605,"ĠFF":13606,"oned":13607,"instances":13608,"without":13609,"execution":13610,"registered":13611,"à´":13612,"ĠSL":13613,"Ġali":13614,"sto":13615,"Ġthird":13616,"ei":13617,"andid":13618,"Ġdevelopment":13619,"ĠEl":13620,"Balance":13621,"tron":13622,"rown":13623,"ĠOffset":13624,"INV":13625,"Ġcomparison":13626,"Board":13627,"getS":13628,"Pet":13629,"Ñī":13630,"//****************************************************************************":13631,"WRAP":13632,"Ġobtaining":13633,"ĠEdit":13634,"mini":13635,"orientation":13636,"faster":13637,"ĠTensor":13638,"permissions":13639,"×¨":13640,"163":13641,"åĲĪ":13642,"uni":13643,"Ġ54":13644,"REV":13645,"phba":13646,"PROG":13647,"ãĥª":13648,"333333":13649,"ĠPa":13650,"ĠMT":13651,"è¿Ķ":13652,"LAYER":13653,"Diag":13654,"crop":13655,"defineProperty":13656,"ĠRO":13657,"Ġprice":13658,"é»":13659,"Ġspi":13660,"Ġ86":13661,"æĽ´":13662,"isode":13663,"çİ°":13664,"Ġmv":13665,"ĠBEGIN":13666,"Ġ'+":13667,"anitize":13668,"Ġhorizontal":13669,"Ġguid":13670,"èİ":13671,"esting":13672,"nowledge":13673,"AQ":13674,"rum":13675,"ĠClean":13676,"Inputs":13677,"gst":13678,"InstanceOf":13679,"GOT":13680,"ĠAsync":13681,"fault":13682,"mmap":13683,"Ġsup":13684,"ĠitemMembers":13685,"ÅŁ":13686,"CheckBox":13687,"qs":13688,"phi":13689,"DISPLAY":13690,"Projection":13691,"STYLE":13692,"éĩı":13693,"Ġeasy":13694,"OKUP":13695,"chnologies":13696,"TAIN":13697,"Directive":13698,"HEIGHT":13699,"prompt":13700,"SIX":13701,"Ġbuilding":13702,"Entities":13703,"MK":13704,"Âģ":13705,"getInt":13706,"ĠSample":13707,"pearance":13708,"åĮĸ":13709,"riterion":13710,"palette":13711,"175":13712,"ĠProfile":13713,"Ġ{?":13714,"rightness":13715,"Ġtty":13716,"ĠScal":13717,"][\"":13718,"ĠRedistribution":13719,"Ġgchar":13720,"Ġma":13721,"unct":13722,"ĠHashSet":13723,"tap":13724,"isa":13725,"eax":13726,"launch":13727,"parm":13728,"ĠReplace":13729,"baz":13730,"}%":13731,";]":13732,"Ġsubstant":13733,"GAIN":13734,"Ġinet":13735,"both":13736,"eep":13737,"rn":13738,"ĠSIM":13739,"cmds":13740,"\"%":13741,"Toolbar":13742,"Ġrespons":13743,"<>(":13744,"CUMENT":13745,"Ġpref":13746,"Removed":13747,"udp":13748,"ĠDNS":13749,"ĠLCD":13750,"Ġxhr":13751,"à¤¨":13752,"Ġpk":13753,"`,`":13754,"Plus":13755,"Ġiteration":13756,"çĦ":13757,"Helpers":13758,"relax":13759,"Ġjump":13760,"TIF":13761,"tery":13762,"Stroke":13763,"Ġpthread":13764,"ĠMar":13765,"ĠsearchBox":13766,"ĠFI":13767,"packets":13768,"Ïħ":13769,"Ġbrowsers":13770,"iator":13771,"Modify":13772,"upgrade":13773,"Suffix":13774,"flip":13775,"mso":13776,"faces":13777,"Ġperformed":13778,"Ġhdd":13779,"routes":13780,"(\"_":13781,"Ġci":13782,"Ċĉĉĉĉĉĉĉĉĉĉĉĉĉ":13783,"NB":13784,"lood":13785,"cks":13786,"ä»¬":13787,"{'":13788,"ĠEQU":13789,"Samples":13790,"nome":13791,"References":13792,"exc":13793,"plorer":13794,"Ġdp":13795,"undo":13796,"Ġminutes":13797,"levels":13798,"Small":13799,"olerance":13800,"Tooltip":13801,"Ġisl":13802,"interaction":13803,"needed":13804,"Cod":13805,"Ġ'__":13806,"ĠBody":13807,"ĠSTATUS":13808,"Cy":13809,"ĠLinked":13810,"Deser":13811,"WHERE":13812,"Ġholds":13813,"Ġencryption":13814,"cannot":13815,"Ġrev":13816,"querySelector":13817,"hance":13818,"ĊĉĉĊ":13819,"',$":13820,"qd":13821,"ĠLIB":13822,"Ġvo":13823,"ĠPWM":13824,"Resolve":13825,"Choice":13826,"ĠOFF":13827,"CTP":13828,"Ġimpl":13829,"pot":13830,"ACL":13831,"Ġimportant":13832,"Ġmaking":13833,"woocommerce":13834,"WAY":13835,"ĠTHEN":13836,"HID":13837,"coll":13838,"meter":13839,"Ġchars":13840,"Ġoperands":13841,"poses":13842,"ĠUsing":13843,"Ġauthors":13844,"Twig":13845,"Ġws":13846,"PAN":13847,"åħ³":13848,"Ġacross":13849,"Ġlarger":13850,"Ġsr":13851,"Ġevalu":13852,"159":13853,"Bg":13854,"netif":13855,"MASTER":13856,"Ġexactly":13857,"ĠProtocol":13858,"Ġduplicate":13859,"ï¿½":13860,"jena":13861,"ClickListener":13862,"ising":13863,"0004":13864,"izations":13865,"AtA":13866,"filtered":13867,"EIO":13868,"Ġdocs":13869,"æĻ":13870,"leting":13871,"Ġtxt":13872,"information":13873,"Ġtip":13874,"Ð°ÑĢ":13875,"ĠFoo":13876,"lazy":13877,"Ġ*/,":13878,"cplusplus":13879,"Ãĳ":13880,"Ġphysical":13881,"Raises":13882,"BSD":13883,"Embed":13884,"Frag":13885,"ĠRegExp":13886,"ãĥ¼ãĥ":13887,"ĊĉĉĉĉĉĠĠĠĠ":13888,"Negative":13889,"Ġsuggest":13890,"Ġrecv":13891,"Maps":13892,"unded":13893,"ĠDistribut":13894,"Ġpointers":13895,"reng":13896,"aternion":13897,"Ġpayment":13898,"Ð¾Ð³":13899,"kcontrol":13900,"ĠDEAL":13901,"eca":13902,"Ġresulting":13903,"ĠÑĥ":13904,"slf":13905,"ĠSND":13906,"]',":13907,"!!!!":13908,"450":13909,"DIST":13910,"Minimum":13911,"................":13912,"offsets":13913,"agento":13914,"}_":13915,"ê°":13916,"website":13917,"ĠManager":13918,"Ð¾Ðº":13919,"strdup":13920,"Throws":13921,"statistics":13922,"Ġaux":13923,"Ġkvm":13924,"ĠSA":13925,"iov":13926,"Typed":13927,"230":13928,"GLuint":13929,"extended":13930,"æ¨¡":13931,"ĠSem":13932,"tracker":13933,"perimental":13934,"Serialize":13935,"Ġasset":13936,"rdf":13937,"serve":13938,"SAVE":13939,"534":13940,"want":13941,"Ġvisual":13942,"Ċĉĉĉĉĉĉĉĉĉĉĉĉĉĉĉĉĉĉ":13943,"Ð½Ñĭ":13944,"RELEASE":13945,"registration":13946,"PARE":13947,"ãģ¾":13948,"Ġ43":13949,"Ð°Ð½Ð¸":13950,"éĥ¨":13951,"MIL":13952,"ampler":13953,"ĠDT":13954,"Ġ95":13955,"Wrong":13956,"audit":13957,"Ġrevision":13958,"\"][\"":13959,"processed":13960,"gap":13961,"ador":13962,"ĠDrop":13963,"Ġonmouse":13964,")`":13965,"choices":13966,"Brush":13967,"ODE":13968,"148":13969,"ĠWRITE":13970,"016":13971,"DNS":13972,"ĠRETURN":13973,"pinfo":13974,"Ġff":13975,"ĠFi":13976,"disc":13977,"VECTOR":13978,"('%":13979,"Dto":13980,"390":13981,"evaluate":13982,"Ġincoming":13983,"htable":13984,"notice":13985,"éħį":13986,"grees":13987,"mddev":13988,"Ġentered":13989,"ë¡":13990,"Artifact":13991,"Pag":13992,"_\"":13993,"ita":13994,"Ġdm":13995,"ĠGLuint":13996,"Ġthough":13997,"155":13998,"remaining":13999,"kubernetes":14000,"Threads":14001,"compar":14002,"substream":14003,"Ġconv":14004,"Ġproblems":14005,"ascii":14006,"197":14007,"CRIPT":14008,"SERIAL":14009,"friend":14010,"Ġreinterpret":14011,"[[":14012,"Dif":14013,"HttpRequest":14014,"Ġfallback":14015,"ĠBox":14016,"startsWith":14017,"oy":14018,"cells":14019,"DEFINED":14020,"WNER":14021,"ĠDEALINGS":14022,"Ġ/*!":14023,"fasterxml":14024,"credentials":14025,"203":14026,"ess":14027,"gpl":14028,"phan":14029,"GLAPI":14030,"Ġvertices":14031,"resolved":14032,"USR":14033,"Dirty":14034,"Ġcompiled":14035,"éĻ¤":14036,"Ġinsn":14037,"locks":14038,"ĠFUNCTION":14039,"checksum":14040,"Middle":14041,"INX":14042,"CAT":14043,"SHOW":14044,"lix":14045,"mor":14046,"ĠNONINFRINGEMENT":14047,"020":14048,"(\"\")]":14049,"Ġcalendar":14050,"xFFFF":14051,"ently":14052,"vdd":14053,"ildcard":14054,"How":14055,"Ġserialize":14056,"Ġrequirements":14057,"Ġpredicate":14058,"Ġig":14059,"IMG":14060,"Ġmicro":14061,"ĠØ§ÙĦ":14062,"tsk":14063,"voltage":14064,"MPI":14065,"TECT":14066,"Ġnormalize":14067,"225":14068,"GUAGE":14069,"Threading":14070,"mutable":14071,"ibration":14072,"ALTER":14073,"submission":14074,"Ġsubstantial":14075,"SENT":14076,"labs":14077,"ISR":14078,"hid":14079,"Tele":14080,"ael":14081,"PACKAGE":14082,"Manifest":14083,"ĠApi":14084,"hn":14085,"srv":14086,"hideSubMenu":14087,"Ġ$('":14088,"Linux":14089,"RAD":14090,"vertices":14091,"ĊĠĠĠĠĠĠĠĠĠĠĊĠĠĠĠĠĠĠĠ":14092,"ansion":14093,"Ġuc":14094,"PTED":14095,"Ġpoll":14096,"Ġrendering":14097,"LIBR":14098,"Ġlibraries":14099,"äºĭ":14100,"icult":14101,"777":14102,"xFE":14103,"Allocator":14104,"Ġ47":14105,"Ġpromote":14106,"ĠSeq":14107,"Mime":14108,"Ġ(\\":14109,"articles":14110,"ĠHelp":14111,"zend":14112,"robot":14113,"Ġshutdown":14114,"Ġels":14115,"trip":14116,"Ġ52":14117,">*":14118,"Ġib":14119,"Ġcurl":14120,"ublicense":14121,"PDF":14122,"urnished":14123,"Ġbroadcast":14124,"çķ":14125,"Ġinc":14126,"Ġradio":14127,"179":14128,"Ġ(;":14129,"luc":14130,"Templates":14131,"Ġlittle":14132,"Black":14133,"guard":14134,"itation":14135,"Positive":14136,"NPC":14137,"162":14138,"irth":14139,"141":14140,"Ð¸Ñģ":14141,"Ġdropdown":14142,"013":14143,"Ġsublicense":14144,"Ġ768":14145,"works":14146,"dro":14147,"Ġedges":14148,"COMPI":14149,"ifetime":14150,"MV":14151,"published":14152,"herits":14153,"ASSIGN":14154,"volution":14155,"ieee":14156,"gulp":14157,"bone":14158,"Ġaway":14159,"ĠmSV":14160,"DefVals":14161,"ĠLength":14162,"advanced":14163,"ĠPattern":14164,"Comparator":14165,"ĠmSVDefVals":14166,"receiver":14167,"Ġticket":14168,"Ġautorest":14169,"ynthe":14170,"'/>":14171,"Ġcompilation":14172,"enticate":14173,"CES":14174,"POINTER":14175,"Ġpositions":14176,"nit":14177,"\"][":14178,"readable":14179,"(\"(":14180,"NORE":14181,"umed":14182,"hemas":14183,"Ġ/.":14184,"ëĬĶ":14185,"minus":14186,"accordion":14187,"received":14188,"Bra":14189,"ey":14190,"Ġsystems":14191,"Lex":14192,"UTC":14193,"stricted":14194,"Ġseveral":14195,"Collector":14196,"Ġ--------------------------------":14197,"ĠTF":14198,"polation":14199,"MQ":14200,"Idle":14201,"duces":14202,"filesystem":14203,"Ġ***":14204,"GetString":14205,"\")).":14206,"Ġinserted":14207,"motion":14208,"Ġregistration":14209,"streams":14210,"Ġfloating":14211,"Conv":14212,"Ġspin":14213,"ABC":14214,"DESCRIPTION":14215,"Ġoverlay":14216,"Jav":14217,"=_":14218,"broadcast":14219,"cw":14220,"Ġslow":14221,"rottle":14222,"accessor":14223,"Ġexamples":14224,"Gre":14225,"ÐºÐ¸":14226,"Extent":14227,"å¹´":14228,"ĠTemple":14229,"åŃĲ":14230,"Ġ??":14231,"Callbacks":14232,"gateway":14233,"ufact":14234,"plt":14235,"ĠDialog":14236,"Picture":14237,"fines":14238,"\\:":14239,"LEEP":14240,"Ġgoverned":14241,"Preference":14242,"coeff":14243,"čĊčĊĠĠĠĠ":14244,"Ġjavadoc":14245,"ez":14246,"Ord":14247,"Ġexplode":14248,"Layers":14249,"datas":14250,"ĠMETHOD":14251,"BLE":14252,"ĠStatic":14253,"Ð»Ñı":14254,"abling":14255,"SYSC":14256,"ĠFE":14257,"Regular":14258,"Ġlogged":14259,"'<":14260,"Ġmlx":14261,")>":14262,"Syn":14263,"ived":14264,"å®¹":14265,"uda":14266,"HeadingColor":14267,"DAY":14268,"OID":14269,")(((":14270,"Translate":14271,"Ġconflict":14272,"ĠPlatform":14273,"Ġ49":14274,"ĠStep":14275,"PROGRAM":14276,"ĠAv":14277,"ĠHtml":14278,"00007":14279,"ĠParser":14280,"Ġcapacity":14281,"==\"":14282,"ĠCollections":14283,"Ð°Ð´":14284,"Ġearly":14285,"Sur":14286,"detach":14287,"ĠOracle":14288,"ç»ĵ":14289,"ircu":14290,"dao":14291,"NF":14292,"mong":14293,"Ġ2002":14294,"nod":14295,"Ġfw":14296,"nP":14297,"chie":14298,"ookies":14299,"Ġtb":14300,"fixture":14301,"pthread":14302,"Ġhd":14303,"Ġhci":14304,"èİ·":14305,"ONSE":14306,"SPH":14307,"Ġsaf":14308,"208":14309,"MessageBox":14310,"ailability":14311,"Inspector":14312,"minimum":14313,"({},":14314,"NonNull":14315,"328":14316,"ĠPACK":14317,"riends":14318,"sbi":14319,"Increment":14320,"Ġmanage":14321,"Â¯":14322,"hcd":14323,"ĠPK":14324,"SEPAR":14325,"Ant":14326,"City":14327,"205":14328,"delayed":14329,"213":14330,"Logical":14331,"IDENT":14332,"EXCEPTION":14333,"ĠVideo":14334,"ĠLim":14335,"ĠWrit":14336,"subsection":14337,"Pager":14338,"PREV":14339,"ĠPC":14340,"SOCKET":14341,"!\",":14342,"Company":14343,"openg":14344,"DependencyInjection":14345,"****************************":14346,"ampling":14347,"ternat":14348,"gol":14349,"Ġwish":14350,"rength":14351,"éĺ":14352,"JsonProperty":14353,"ĠWARNING":14354,"Ġconsumer":14355,"solete":14356,"constraints":14357,"gamma":14358,"Ġrpc":14359,"CRC":14360,"Ġct":14361,"187":14362,"through":14363,"ĊĉĉĉĉĉĉĉĊĉĉĉĉĉĉĉĊĉĉĉĉĉĉ":14364,"ĠInitial":14365,"ĠLayer":14366,"Ġlex":14367,"Ġ&$":14368,"Ġsegments":14369,"assertRaises":14370,"Â¢":14371,"ĠOpt":14372,"ermine":14373,"ĠDefinition":14374,"ĠDriver":14375,"Ġaccepted":14376,"375":14377,"Macro":14378,"},{":14379,"Describe":14380,"Ġmilliseconds":14381,"ĠLeg":14382,"Smart":14383,"Ġcreature":14384,"verb":14385,"ĠCOPYING":14386,"charge":14387,"Ġsections":14388,"Escape":14389,"phere":14390,"ÂŃ":14391,"030":14392,"}{\\":14393,"ored":14394,"SVG":14395,"ADIE":14396,"IndexOf":14397,"ĠIntern":14398,"toArray":14399,"setName":14400,"PV":14401,"Ġeu":14402,"vreg":14403,"parents":14404,"Ġeth":14405,"Ġpress":14406,"prt":14407,"Ġqemu":14408,"Ãĺ":14409,"ListView":14410,"0400":14411,"Finish":14412,"Ġbuff":14413,"PERM":14414,"ille":14415,"209":14416,"yyyy":14417,"Ġ63":14418,"Ġinterrupts":14419,"Compilation":14420,"WID":14421,"337":14422,"ializing":14423,"OPTS":14424,"Deployment":14425,"stock":14426,"screens":14427,"Walk":14428,"({'":14429,"Ġpsz":14430,"Ġmx":14431,"Ġ(#":14432,"memSeparator":14433,"ĠFull":14434,"mpi":14435,"Ġmanually":14436,"xhr":14437,"ĠFramework":14438,"matcher":14439,"Ġtun":14440,"queues":14441,"Ġ123":14442,"Ġhot":14443,"SCHED":14444,"htm":14445,"Ġports":14446,"instr":14447,"ASM":14448,"ĠCase":14449,"Deleted":14450,"Ġlevels":14451,"AURA":14452,"Ġwindows":14453,"à³":14454,"Ġstartup":14455,"Ð¾Ð±":14456,"Ġ<>":14457,"ASCI":14458,"TRIGGER":14459,"Did":14460,"ĠPLL":14461,"ĠMM":14462,"à¤ķ":14463,"(\"\",":14464,"regular":14465,"Invocation":14466,"Instr":14467,"TableName":14468,"ĠSkBits":14469,"videos":14470,"GPU":14471,"Ġopened":14472,"LOOP":14473,"Ġ02111":14474,"adb":14475,"sans":14476,"sper":14477,"åĪ¶":14478,"ĠBad":14479,"Plugins":14480,"ysq":14481,"AINT":14482,"iry":14483,"Ġbio":14484,"\">-":14485,"ĠTransform":14486,"ç»Ħ":14487,"ĠSDK":14488,"acpi":14489,"phab":14490,"TreeNode":14491,"battery":14492,"Ġcountry":14493,"TextView":14494,"lover":14495,"HttpServlet":14496,"Ġdirectories":14497,"ĠÐ½Ð°":14498,"ohn":14499,"inheritdoc":14500,"icmp":14501,"ĠGLfloat":14502,"Ġentities":14503,"ä¾ĭ":14504,"Flash":14505,"Pt":14506,"Comparison":14507,"Ġ___":14508,"åģ":14509,"Ġ*************************************************************************":14510,"íķĺ":14511,"serialized":14512,"Ċĉĉĉĉĉĉĉĉĉĉĉĉĉĉ":14513,"maint":14514,"SLA":14515,"MLElement":14516,"klass":14517,"æĦ":14518,"Ġnullable":14519,"\\/\\/":14520,"requires":14521,"StateException":14522,"Compat":14523,"documentation":14524,"Related":14525,"è°ĥ":14526,"angles":14527,"expects":14528,"CONNECTION":14529,"ĠBus":14530,"Ticket":14531,"ÏĤ":14532,"quad":14533,"ĠArrays":14534,"ĠQueue":14535,"anity":14536,"por":14537,"184":14538,"Widgets":14539,"searchBox":14540,"Ġtabindex":14541,"ĠTypes":14542,"%=":14543,"Ġleading":14544,"Ġ[])":14545,"Coins":14546,"sat":14547,"gebra":14548,"ĠAtomic":14549,"completed":14550,"Migration":14551,"Extended":14552,".&":14553,"bower":14554,"Ġ');":14555,"(../":14556,"glew":14557,"ĠLa":14558,"review":14559,"217":14560,"LIGHT":14561,"Ġtax":14562,";\"></":14563,"åĮº":14564,"attack":14565,"lications":14566,"learn":14567,"rootScope":14568,"Days":14569,"Dst":14570,"Ġdepending":14571,"Ġlikely":14572,"Ġintro":14573,"}],":14574,"quation":14575,"Inherited":14576,"IFORM":14577,"Ġ<![":14578,"pection":14579,"ĊĠĠĠĠĠĠĠĠĠĠĠĠĠĠĠĠĠĠĠĠĠĠĠĠĠĠĠĠĠĠĠĠĠĠĠĠĠĠĠĠĠĠĠĠĠĠĠĠĠ":14580,"Ġgrpc":14581,"xfe":14582,"Ġblo":14583,"//*****************************************************************************":14584,"Ġmc":14585,"spaces":14586,"::-":14587,"è§£":14588,"chool":14589,"ãĥ©":14590,"Cross":14591,"basename":14592,"Compile":14593,"additional":14594,"043":14595,"mpeg":14596,";\",":14597,"rcv":14598,"ĠRespond":14599,"ugar":14600,"SSE":14601,"preg":14602,"Ġ({":14603,"getPath":14604,"Ġformatted":14605,"å°ı":14606,"ngular":14607,"repos":14608,"MISC":14609,"ĠAli":14610,"ĠDev":14611,"placement":14612,"Drawable":14613,"Ġadres":14614,"ahead":14615,"Desktop":14616,"ĠCK":14617,"Shutdown":14618,"CRYPT":14619,"YUV":14620,"kk":14621,";\"><":14622,"Ġcloud":14623,"Ġstrong":14624,"ĠPNG":14625,"Ġpast":14626,"does":14627,"ĠEnter":14628,"Propagation":14629,"suggest":14630,"idad":14631,"avid":14632,"Ġ144":14633,"Targets":14634,"]):":14635,"__[\"":14636,"Tl":14637,"gres":14638,"Ġxs":14639,"Ġmobile":14640,"ĠCla":14641,"ocab":14642,"Ġhour":14643,"Ġhappens":14644,"Yes":14645,"Äĩ":14646,"Exact":14647,"GRA":14648,"Ġhr":14649,"Buffers":14650,"Trim":14651,"Intern":14652,"888":14653,"xyz":14654,"Ġga":14655,"RG":14656,"Ġidentify":14657,"Den":14658,"AsString":14659,"Ġmaps":14660,"Ġoffsets":14661,"Battle":14662,"Ġfilesystem":14663,"ÙĤ":14664,"Ġdocker":14665,"azel":14666,"dims":14667,"svc":14668,"Coordinate":14669,"Ġrad":14670,"lite":14671,"unmap":14672,"TabIndex":14673,"Ġcoins":14674,"versal":14675,"Ġarrow":14676,"Star":14677,"ĠUSER":14678,"tailed":14679,"YP":14680,"quota":14681,"ĠPr":14682,"/*.":14683,"elseif":14684,"ĠProvide":14685,"authentication":14686,"coords":14687,"ĠGLsizei":14688,"207":14689,"ĠAB":14690,"obs":14691,"ç³":14692,"ĠDrupal":14693,"ĊĊĠĠĠĠĠĠĠĠĠĠĠĠ":14694,"Ġclients":14695,"\":[":14696,"specified":14697,"ĠSQLException":14698,"enes":14699,"ssize":14700,"ĠDS":14701,"bing":14702,"Ġcollapse":14703,"Ġasn":14704,"rew":14705,"tribution":14706,"éĢī":14707,"xFFFFFFFF":14708,"ĠNative":14709,"prepend":14710,"260":14711,"PROTOCOL":14712,"Ġincrease":14713,"\"/><":14714,"thenReturn":14715,"Currency":14716,"']:":14717,"Ġserializer":14718,"fid":14719,"Ġ{}\",":14720,"veal":14721,"Ð°Ð²":14722,"Fun":14723,"house":14724,"DEN":14725,"Ġregs":14726,"beat":14727,"rozen":14728,"ĠTREE":14729,"'/":14730,"212":14731,"Repeat":14732,"limin":14733,"Ġsheet":14734,"SAFE":14735,"Ġpeople":14736,"setProperty":14737,"Ġrecipient":14738,"è®¾ç½®":14739,"Ship":14740,"tlv":14741,"Into":14742,"('-":14743,"167":14744,"openapi":14745,"99999999":14746,"cognized":14747,"Ġpb":14748,"dsp":14749,"counts":14750,"ĠUnicode":14751,"194":14752,"Ġdidn":14753,"-(":14754,"\">.</":14755,"ided":14756,"avor":14757,">>>":14758,"DTO":14759,"Ġdecor":14760,"ĠMC":14761,"uncheck":14762,"WI":14763,"Ġcols":14764,"åĲ¦":14765,"ĠImGui":14766,"_%":14767,"debian":14768,"ĠCM":14769,"åºı":14770,"Undefined":14771,"Ġnom":14772,"254":14773,"unref":14774,"å½ķ":14775,"Publish":14776,"MULT":14777,"Ġrespect":14778,"263":14779,"Ġreferenced":14780,"Ġchoice":14781,"qc":14782,"DES":14783,"dereq":14784,"Ġhooks":14785,"']->":14786,"neur":14787,"antics":14788,"partment":14789,"Ù¾":14790,"//========================================================================":14791,"Ġmu":14792,"56789":14793,"express":14794,"Ġvisitor":14795,"Ġconstexpr":14796,"INTEL":14797,"190":14798,"ĠWidget":14799,"MDP":14800,"Wnd":14801,"Ġmedi":14802,"stripe":14803,"Ġfollows":14804,"}),":14805,"Less":14806,"modes":14807,"mixins":14808,"ATER":14809,"\".$":14810,"PRODUCT":14811,"aciÃ³n":14812,"xaa":14813,"?)":14814,"Äħ":14815,"ĠHere":14816,"HPP":14817,"computer":14818,"174":14819,"Ġstructures":14820,"don":14821,"letes":14822,"hb":14823,"ONY":14824,"ãĥ¼ãĤ":14825,"observer":14826,"Ãļ":14827,"VersionUID":14828,"ozilla":14829,"ĠCondition":14830,"drm":14831,"ĠIcon":14832,"COMPARE":14833,"ĠConstants":14834,"Ġtextarea":14835,"ĊĉĉĊĉĊĉĉĊĉ":14836,"Infos":14837,"SECTION":14838,"Ġcustomer":14839,"017":14840,"Ġencrypted":14841,"ĠExecute":14842,"Reserved":14843,"Ġfl":14844,"Inf":14845,"Ġconcat":14846,"itable":14847,"Ġgboolean":14848,"west":14849,"THO":14850,"Outcome":14851,"inuous":14852,"Ġ=================================":14853,"270":14854,"Ġacpi":14855,"ĠRES":14856,"Ġfiltered":14857,"ĠADIE":14858,"âĢľ":14859,"280":14860,"Ġevaluate":14861,"qos":14862,"Ġau":14863,"ĠExport":14864,"poch":14865,"cline":14866,"Cb":14867,
[...]
